<pad>	0
<unk>	0
[CLS]	0
[SEP]	0
[MASK]	0
(	0
)	0
"	0
-	0
.	0
–	0
£	0
€	0
▁	-2.34189
,	-3.42031
▁là	-4.11353
▁một	-4.34456
▁và	-4.37746
▁của	-4.41702
▁được	-4.49281
▁trong	-4.57612
▁năm	-4.70284
▁có	-4.76348
▁các	-5.01383
▁này	-5.0666
▁họ	-5.18411
▁loài	-5.27816
▁người	-5.32188
▁đã	-5.35007
▁với	-5.39662
▁ở	-5.40184
▁học	-5.42749
▁đầu	-5.44892
▁cho	-5.47169
▁vào	-5.65468
▁thành	-5.7325
▁số	-5.77352
▁tả	-5.79272
▁tháng	-5.80863
▁khoa	-5.8297
▁Loài	-5.83305
▁từ	-5.86027
▁không	-5.86109
▁tiên	-5.87246
▁đến	-5.89856
▁những	-5.90769
▁vật	-5.95274
▁tại	-5.97026
▁khi	-5.97411
▁thực	-5.98362
▁thuộc	-6.01418
▁ra	-6.04846
▁thể	-6.05164
▁ngày	-6.05915
▁đó	-6.06833
:	-6.08083
▁công	-6.11404
▁để	-6.1185
▁về	-6.11946
▁như	-6.15912
▁bị	-6.16827
▁sự	-6.17002
▁trên	-6.21174
▁dân	-6.21413
▁chính	-6.22894
▁ông	-6.23641
▁quân	-6.25864
▁sau	-6.30076
▁mô	-6.30888
▁làm	-6.34406
▁gia	-6.36452
▁lại	-6.36781
▁cũng	-6.37337
▁thời	-6.3882
▁hoa	-6.39308
▁nhà	-6.3935
▁nước	-6.39412
▁động	-6.40679
▁nhất	-6.44853
▁hiện	-6.45402
▁Nam	-6.48312
▁nhiều	-6.51862
▁phát	-6.52504
▁hành	-6.55621
▁bộ	-6.57653
▁theo	-6.59317
▁miêu	-6.59322
▁khác	-6.61659
▁hai	-6.62524
▁việc	-6.63395
▁con	-6.63849
s	-6.64014
▁xã	-6.64582
▁quan	-6.68323
▁chỉ	-6.68589
▁sử	-6.6872
▁quốc	-6.69586
▁thế	-6.70254
▁cùng	-6.70795
▁hơn	-6.71123
▁chiến	-6.72319
▁thị	-6.73182
▁dụng	-6.74193
▁nhân	-6.75495
▁1	-6.75914
▁tỉnh	-6.76115
▁độ	-6.76451
▁do	-6.77317
▁thứ	-6.78258
▁còn	-6.78582
▁hình	-6.78927
a	-6.79647
▁nó	-6.79671
▁định	-6.79808
▁xuất	-6.80332
▁đồng	-6.80793
▁viên	-6.81958
▁sinh	-6.81986
▁Quốc	-6.83678
▁phía	-6.84815
▁bởi	-6.8549
▁cuộc	-6.86128
▁cách	-6.86872
▁Trung	-6.87056
▁vị	-6.87058
▁Việt	-6.87939
▁tên	-6.89219
▁lớn	-6.89741
▁nhưng	-6.90155
▁bản	-6.90187
▁khu	-6.90443
▁trở	-6.90794
▁vùng	-6.90981
▁2	-6.91632
▁cao	-6.91856
▁giới	-6.92103
▁điểm	-6.92216
▁tự	-6.92568
▁lập	-6.92732
▁bằng	-6.9301
▁hợp	-6.93428
▁phần	-6.94403
▁đội	-6.94899
▁Năm	-6.94994
▁rằng	-6.96328
▁phải	-6.96456
▁Kỳ	-6.96488
▁Hoa	-6.97213
▁huyện	-6.97359
▁cả	-6.97959
▁điều	-6.98009
▁phân	-6.98037
▁chức	-6.98318
▁lượng	-6.98404
▁trường	-6.98568
▁đại	-6.98814
;	-6.99182
▁nhận	-7.00057
▁Trong	-7.00174
▁gồm	-7.00657
▁trước	-7.01002
▁thường	-7.0135
▁3	-7.01527
▁Anh	-7.0225
▁hội	-7.02314
▁mà	-7.02696
▁giải	-7.0346
▁trình	-7.03511
▁qua	-7.03578
▁kết	-7.03714
▁cánh	-7.04031
▁hoặc	-7.0466
▁chủ	-7.05622
▁tiếp	-7.05827
▁Các	-7.06216
▁thống	-7.07586
▁trung	-7.08155
▁sản	-7.08328
▁loại	-7.08363
▁sẽ	-7.08429
▁cơ	-7.09877
▁lên	-7.09879
▁tích	-7.10993
▁sống	-7.11123
▁tế	-7.11732
▁phố	-7.12438
▁đi	-7.12595
▁đêm	-7.14072
▁đối	-7.14217
▁gọi	-7.14693
▁tiếng	-7.15704
▁tính	-7.15832
▁lực	-7.15861
i	-7.16105
▁diễn	-7.1658
▁mình	-7.16605
▁bắt	-7.16828
▁chi	-7.18004
▁nhiên	-7.18216
▁lý	-7.18512
▁vì	-7.1874
▁vụ	-7.19659
▁tác	-7.20041
▁tạo	-7.20078
▁bao	-7.20185
▁diện	-7.20467
▁vực	-7.20721
▁hàng	-7.21461
▁quyền	-7.21596
▁trị	-7.21781
▁đường	-7.22667
▁đánh	-7.23344
▁thông	-7.2348
▁chúng	-7.24515
▁khoảng	-7.25126
▁hệ	-7.2539
▁bướm	-7.25491
▁địa	-7.25808
▁lần	-7.26016
▁giáo	-7.26697
▁cô	-7.26833
▁Pháp	-7.27031
▁đoàn	-7.27238
▁phim	-7.27798
▁cứng	-7.29046
▁Đại	-7.2912
▁sĩ	-7.2948
▁Sau	-7.29711
▁4	-7.30042
▁cấp	-7.30316
▁mới	-7.30431
▁biển	-7.31453
▁thủ	-7.3182
▁pháp	-7.31963
▁hay	-7.32722
▁thì	-7.32774
▁bang	-7.32853
▁thấy	-7.33438
e	-7.33537
▁anh	-7.33599
▁Tây	-7.33822
▁Đức	-7.33851
▁5	-7.33949
▁cầu	-7.34021
▁đô	-7.34157
▁rất	-7.34269
▁thức	-7.34378
▁bọ	-7.35703
▁10	-7.36151
▁tới	-7.36804
▁bay	-7.36887
▁đấu	-7.37386
▁nên	-7.37422
▁tranh	-7.37616
▁hóa	-7.37701
2	-7.37923
▁bố	-7.38699
▁tàu	-7.38902
▁trận	-7.39577
▁máy	-7.39668
▁tập	-7.3967
▁liên	-7.39689
▁đề	-7.40008
▁chuyển	-7.40182
▁tham	-7.40351
▁mặt	-7.40442
▁năng	-7.41106
n	-7.41451
▁Mỹ	-7.41463
▁gian	-7.42153
▁đây	-7.43233
▁toàn	-7.43477
▁nhạc	-7.43888
▁km	-7.44028
▁đất	-7.46191
▁đặc	-7.46329
▁Nó	-7.46336
▁nam	-7.46482
▁Bắc	-7.46494
▁văn	-7.46757
▁phương	-7.46798
/	-7.46856
▁nghiệp	-7.46908
▁6	-7.47163
▁nhau	-7.47522
▁truyền	-7.47549
▁giữa	-7.47629
▁12	-7.48141
▁hoạt	-7.4852
▁tiểu	-7.48806
▁đạo	-7.48936
▁hiệu	-7.49078
▁triển	-7.49214
▁nằm	-7.49985
m	-7.50545
▁đang	-7.51264
▁Ông	-7.51433
▁tổ	-7.5147
▁trí	-7.5166
▁nơi	-7.52483
▁bình	-7.52486
▁chất	-7.52607
▁biệt	-7.53203
▁Một	-7.5323
▁kinh	-7.54091
▁chế	-7.5424
o	-7.54491
▁đá	-7.54868
▁dưới	-7.5509
t	-7.55208
▁Lan	-7.5537
▁tử	-7.55887
▁tâm	-7.56146
▁thiết	-7.56184
▁sáng	-7.56549
▁nghĩa	-7.56609
▁đổi	-7.56667
▁ba	-7.57053
▁ban	-7.57188
▁biết	-7.58267
▁dài	-7.58468
▁A	-7.58642
▁châu	-7.59123
▁cuối	-7.60225
▁tăng	-7.60253
▁thuật	-7.60405
▁phủ	-7.60749
▁7	-7.60822
▁Đông	-7.61093
▁8	-7.6133
▁bà	-7.61625
▁nói	-7.61897
▁đơn	-7.62117
▁danh	-7.62889
▁kỳ	-7.62975
▁nhiệm	-7.63168
▁nữ	-7.63197
▁tiến	-7.63328
▁vẫn	-7.63488
▁bóng	-7.64124
▁mục	-7.643
▁đều	-7.64414
▁trọng	-7.64504
▁đảo	-7.64634
▁cứu	-7.64676
▁thay	-7.65459
▁ảnh	-7.6582
▁trưởng	-7.65857
▁Thái	-7.661
▁tìm	-7.66115
▁gần	-7.66478
▁bắc	-7.66556
▁nhỏ	-7.66643
▁9	-7.66722
▁bảo	-7.67236
▁kế	-7.67475
▁biến	-7.67617
▁dịch	-7.67697
▁đông	-7.67811
▁dùng	-7.67998
▁âm	-7.68006
▁ý	-7.68712
▁phẩm	-7.68854
▁đặt	-7.68999
▁thân	-7.69101
▁&	-7.69122
▁thu	-7.69343
▁điện	-7.69522
▁tình	-7.69887
▁báo	-7.70382
▁tiêu	-7.70447
▁quận	-7.70498
▁ăn	-7.70573
▁ta	-7.70582
▁Công	-7.70582
▁tinh	-7.70829
▁nguyên	-7.70955
▁tổng	-7.7211
▁thi	-7.72237
▁cá	-7.72429
▁Nhật	-7.72529
▁miền	-7.72749
▁tuổi	-7.72949
▁Dân	-7.73336
▁Liên	-7.73356
▁nhóm	-7.73594
▁sách	-7.74147
▁bài	-7.74233
▁phòng	-7.74239
▁tương	-7.74251
▁nổi	-7.74319
▁dự	-7.75176
▁giá	-7.7531
▁11	-7.7597
▁tư	-7.7614
▁tin	-7.765
▁hòa	-7.76534
▁bên	-7.7695
▁Tuy	-7.77375
'	-7.77563
▁tướng	-7.7791
▁lịch	-7.77918
▁sông	-7.78262
▁phong	-7.7834
▁tài	-7.78358
▁chơi	-7.78665
▁Vào	-7.78787
▁Bộ	-7.78946
▁sát	-7.79275
▁nay	-7.79483
▁quả	-7.7957
▁dẫn	-7.79604
▁đình	-7.79759
▁đưa	-7.79801
▁yếu	-7.80492
▁phục	-7.81078
▁Ngày	-7.81302
▁viết	-7.81427
▁ngoài	-7.81503
▁Độ	-7.81727
▁mang	-7.81816
y	-7.8182
us	-7.81836
▁ứng	-7.82042
▁nhiệt	-7.82156
▁hậu	-7.82721
▁giữ	-7.82951
▁tấn	-7.83028
▁ca	-7.8332
▁biểu	-7.83647
▁Hà	-7.83911
▁tục	-7.83916
▁giao	-7.84253
▁kỷ	-7.84526
▁màu	-7.84895
▁binh	-7.84896
▁chiếc	-7.85845
▁từng	-7.85928
▁thương	-7.86239
▁Ấn	-7.86384
▁Dương	-7.86686
▁làng	-7.87164
▁bán	-7.87603
▁liệu	-7.87653
▁đời	-7.88002
▁Hoàng	-7.88005
▁quá	-7.88095
▁rộng	-7.88318
▁đóng	-7.8877
▁phụ	-7.8884
▁nhập	-7.88882
▁thần	-7.88886
▁hát	-7.8896
▁Theo	-7.89036
▁bỏ	-7.89425
▁di	-7.89468
▁dựng	-7.89741
▁mùa	-7.90126
000	-7.90682
▁bất	-7.90846
▁vua	-7.90904
▁dù	-7.91217
▁trang	-7.91724
▁Thành	-7.91733
▁tây	-7.92023
▁quyết	-7.92114
▁chiếm	-7.92154
▁hoàn	-7.92165
▁chưa	-7.92539
▁chương	-7.92593
▁hoàng	-7.92938
▁khí	-7.93062
▁La	-7.9319
▁xây	-7.93369
▁giống	-7.93633
▁vệ	-7.94254
▁Cộng	-7.94534
▁nào	-7.94653
▁tra	-7.95022
▁cung	-7.95304
1	-7.95408
▁Bản	-7.9552
▁viện	-7.95711
▁Hải	-7.9573
▁chống	-7.95787
▁An	-7.96115
▁Ban	-7.96361
▁sở	-7.96608
▁S	-7.97237
▁vai	-7.9741
▁Chúng	-7.97575
▁cử	-7.97806
▁nghệ	-7.98045
▁thắng	-7.98229
▁Nguyễn	-7.98397
▁Văn	-7.98664
▁cổ	-7.9871
▁Ba	-7.98714
▁mất	-7.98813
▁Bình	-7.99095
▁tiền	-7.99584
▁mở	-7.99796
▁xác	-7.99839
▁mạnh	-8.00089
▁kích	-8.00442
▁Tổng	-8.00495
▁cái	-8.0083
▁vô	-8.01226
▁chết	-8.01317
▁Minh	-8.01319
▁ngôi	-8.01535
▁hộ	-8.01845
▁trấn	-8.02045
▁lệ	-8.0247
▁hạng	-8.02604
▁bệnh	-8.02606
C	-8.02827
▁chân	-8.02927
▁lúc	-8.03483
▁trợ	-8.03506
▁đạt	-8.03613
▁minh	-8.04339
▁gây	-8.04432
▁C	-8.04436
▁cộng	-8.05229
▁tộc	-8.05724
▁quản	-8.06086
▁triệu	-8.06114
▁Khi	-8.06811
▁Quân	-8.06962
▁nghiên	-8.07007
▁tượng	-8.07039
▁hướng	-8.07137
▁lãnh	-8.07157
▁dạng	-8.07235
A	-8.07415
▁chung	-8.077
▁phản	-8.07765
▁vận	-8.07795
▁cây	-8.07966
▁sang	-8.08214
▁giờ	-8.08499
▁xe	-8.08803
▁hữu	-8.08869
▁giả	-8.08912
▁nguồn	-8.09051
▁trò	-8.09345
▁thư	-8.10304
▁chứng	-8.10728
▁Xã	-8.10935
▁Những	-8.10958
▁sân	-8.1121
▁I	-8.11278
▁ghi	-8.11291
▁Từ	-8.11321
▁kiến	-8.11733
▁ngữ	-8.12062
▁tất	-8.12102
▁án	-8.12189
▁ký	-8.12227
g	-8.12311
▁câu	-8.12378
▁phá	-8.12504
▁giúp	-8.12619
▁dương	-8.12838
▁yêu	-8.12844
▁lưu	-8.12935
▁vậy	-8.13342
2,	-8.13721
▁tay	-8.13942
▁Nhĩ	-8.14062
▁kể	-8.14071
▁độc	-8.14206
▁Nga	-8.14442
▁lạc	-8.14463
▁đoạn	-8.1491
▁mỗi	-8.15242
▁hạn	-8.153
▁vương	-8.15455
h	-8.15529
▁thích	-8.15632
▁Sơn	-8.15763
▁Thổ	-8.15799
▁kiện	-8.16138
▁khỏi	-8.16287
▁thêm	-8.16393
▁sư	-8.16807
▁chọn	-8.17334
▁thuyết	-8.1734
▁hết	-8.17388
▁cư	-8.1744
▁chia	-8.17473
▁B	-8.17614
▁sao	-8.17697
▁phép	-8.17843
▁Do	-8.18239
▁cảnh	-8.18319
▁tốt	-8.18359
▁cần	-8.18371
▁ty	-8.1856
▁lấy	-8.18748
▁Vương	-8.18831
▁núi	-8.19142
▁sắc	-8.19159
▁mật	-8.1954
▁20	-8.19874
▁so	-8.19878
▁tỷ	-8.2016
▁Âu	-8.20316
▁vòng	-8.20396
▁cảm	-8.21056
▁thảo	-8.21129
▁Châu	-8.21649
c	-8.22421
▁đới	-8.22442
▁hưởng	-8.2267
▁triều	-8.22684
▁vấn	-8.22903
▁vi	-8.23048
▁15	-8.2315
▁ít	-8.23429
▁khả	-8.237
▁luật	-8.2417
ia	-8.24252
▁Đây	-8.2451
▁Mã	-8.25151
▁lệnh	-8.25941
▁nội	-8.26396
▁chí	-8.26439
▁trực	-8.26675
u	-8.27035
▁Chính	-8.27149
▁Hội	-8.27697
▁Phi	-8.27902
▁trai	-8.28114
▁giảm	-8.28489
▁quy	-8.28517
▁huy	-8.28819
▁xem	-8.28845
▁de	-8.28962
▁gốc	-8.29108
▁K	-8.29131
▁mạng	-8.29143
▁em	-8.30523
▁cố	-8.30616
l	-8.30653
▁Nha	-8.30761
▁lời	-8.31121
▁niên	-8.31168
d	-8.31264
▁xếp	-8.31326
▁Thanh	-8.31876
▁M	-8.32138
▁sức	-8.32882
▁giáp	-8.33286
▁nhện	-8.33418
▁mắt	-8.33624
▁đế	-8.33753
B	-8.33974
▁Lý	-8.3404
▁Tại	-8.34217
▁giành	-8.34241
▁duy	-8.34254
▁trẻ	-8.34315
ng	-8.3442
▁vũ	-8.34523
▁khai	-8.34924
▁thiên	-8.34953
▁Chiến	-8.35002
▁Nhà	-8.3553
▁khiến	-8.35706
▁Long	-8.36114
▁gặp	-8.36326
▁tuyến	-8.36506
▁Tân	-8.36554
▁bàn	-8.36599
▁chạy	-8.36671
um	-8.36887
▁ngoại	-8.36917
▁lợi	-8.36979
▁hạt	-8.37043
▁áp	-8.37148
▁bại	-8.37155
▁môi	-8.37357
▁Tháng	-8.37751
▁bầu	-8.38449
er	-8.3877
▁tuần	-8.39137
▁R	-8.3922
▁of	-8.39238
▁đa	-8.39319
▁album	-8.39432
▁16	-8.39619
▁hầu	-8.39766
▁đồ	-8.40011
k	-8.40187
▁chuẩn	-8.40199
▁the	-8.40237
▁xuống	-8.40269
▁quay	-8.40976
▁thấp	-8.40976
r	-8.41024
ta	-8.41168
S	-8.41214
▁rồi	-8.4142
▁P	-8.41545
▁T	-8.41581
▁riêng	-8.41607
▁phổ	-8.41613
▁Người	-8.41777
▁địch	-8.41924
▁lớp	-8.41949
▁chuyên	-8.4195
▁Xô	-8.42151
▁nghiệm	-8.42323
▁khách	-8.42323
▁Geometridae	-8.42785
▁dòng	-8.42955
▁muốn	-8.43094
▁cáo	-8.43141
▁nghị	-8.43346
▁thanh	-8.43454
▁lễ	-8.43962
▁thúc	-8.4398
▁Đô	-8.44073
▁gái	-8.44196
▁Đảng	-8.44225
M	-8.44931
▁Hòa	-8.44991
idae	-8.4509
▁phái	-8.45426
p	-8.4567
▁Thế	-8.45938
▁nhanh	-8.46031
▁bổ	-8.46125
▁2011	-8.46207
▁thái	-8.46289
▁biên	-8.4655
▁E	-8.46771
▁H	-8.46829
▁F	-8.46876
▁mọi	-8.47007
▁Có	-8.47128
▁Đế	-8.47209
▁Hán	-8.47573
▁nền	-8.4805
3	-8.48142
▁du	-8.48166
▁14	-8.48213
▁nữa	-8.48268
▁kiểm	-8.48306
▁Giải	-8.486
▁hạ	-8.48711
▁đứng	-8.48884
▁Hồ	-8.48892
▁cận	-8.49443
▁doanh	-8.49627
▁phiên	-8.49831
▁D	-8.49888
▁tiết	-8.50282
▁mẹ	-8.50496
▁tỏ	-8.50571
▁tồn	-8.50745
▁cực	-8.50761
▁13	-8.50841
▁2010,	-8.50919
▁in	-8.51117
▁quanh	-8.51165
▁30	-8.51325
▁G	-8.51616
▁Ngoài	-8.51733
▁dục	-8.51746
▁ngay	-8.51768
▁tưởng	-8.51812
▁giám	-8.51884
on	-8.52054
▁an	-8.52264
▁New	-8.52329
b	-8.5254
▁L	-8.52547
▁Trần	-8.52613
▁Nội	-8.5267
▁tịch	-8.52767
▁luận	-8.52955
▁thất	-8.53048
▁Noctuidae	-8.53204
▁giết	-8.53222
▁mức	-8.53509
▁ruồi	-8.53556
▁trùng	-8.53828
▁Giáo	-8.53829
▁tuyên	-8.539
▁vây	-8.54224
▁mềm	-8.54379
▁cửa	-8.54398
de	-8.54584
▁vài	-8.54594
▁vàng	-8.54615
▁Á	-8.54929
▁pháo	-8.54966
▁18	-8.55067
▁Cô	-8.55079
▁2010	-8.55083
▁Tông	-8.55182
▁Nhân	-8.55332
▁thủy	-8.55415
▁đáng	-8.55636
▁phi	-8.55701
▁coi	-8.55918
▁lâu	-8.56229
▁đủ	-8.56268
▁ước	-8.565
▁nhằm	-8.56661
▁rừng	-8.56695
▁Trường	-8.56721
▁Nguyên	-8.56765
▁thờ	-8.57379
▁thuốc	-8.57443
▁giai	-8.57735
▁phóng	-8.57741
▁tối	-8.57838
▁Lê	-8.57887
▁dụ	-8.57901
▁nếu	-8.58565
in	-8.58625
▁Tư	-8.58763
▁bắn	-8.58898
▁dựa	-8.59364
▁đôi	-8.5958
▁cải	-8.59715
▁thập	-8.59871
▁bạn	-8.59924
▁cứ	-8.60067
▁mặc	-8.60082
▁kỹ	-8.6016
▁đốc	-8.60845
▁Bà	-8.60955
na	-8.61149
▁Thiên	-8.61339
▁trúc	-8.6135
▁kéo	-8.61792
▁17	-8.61878
▁cha	-8.62145
▁Đồng	-8.62163
▁Không	-8.62311
▁kim	-8.62334
▁mẫu	-8.62733
▁tố	-8.62943
▁Chi	-8.6302
▁lộ	-8.63098
▁Hồng	-8.63227
▁bảng	-8.63307
en	-8.63528
▁Cerambycidae	-8.6364
▁Họ	-8.63798
▁cấu	-8.63848
▁chiều	-8.64083
▁Hàn	-8.64135
▁tức	-8.64245
▁luyện	-8.64476
sinh	-8.64557
▁Ở	-8.64569
▁hỗ	-8.64585
▁chịu	-8.64663
T	-8.64823
▁khẩu	-8.65105
▁lục	-8.65185
▁tuyển	-8.65304
L	-8.65503
▁Ý	-8.65518
▁mét	-8.65525
▁Vũ	-8.65547
▁chấp	-8.6584
▁Danh	-8.65857
▁ngôn	-8.66179
is	-8.66234
▁rõ	-8.66934
▁hoạch	-8.66972
ch	-8.67014
▁chứa	-8.67124
▁nặng	-8.67219
▁25	-8.67427
▁Cúc	-8.67861
▁đổ	-8.67947
▁nông	-8.6808
▁lá	-8.68236
▁hải	-8.68267
▁quần	-8.68408
▁bờ	-8.68551
▁Cao	-8.68669
▁phận	-8.68683
▁xa	-8.68785
D	-8.68866
f	-8.68939
▁buộc	-8.68993
▁U	-8.69171
▁tốc	-8.69308
▁ngành	-8.69338
km	-8.6943
▁hồ	-8.69435
▁II	-8.69526
▁Chủ	-8.69685
▁phạm	-8.69786
▁thưởng	-8.6981
▁khúc	-8.70238
▁chữ	-8.70684
▁bốn	-8.70701
▁Kinh	-8.70728
▁tôi	-8.70808
▁thổ	-8.70892
▁cạnh	-8.71147
▁hại	-8.7125
▁Kim	-8.71299
▁khởi	-8.71321
▁Tiên	-8.71754
▁dành	-8.72069
K	-8.72107
v	-8.72126
▁Lưu	-8.72265
▁môn	-8.72359
▁trao	-8.72386
▁tôn	-8.72542
▁xỉ	-8.72607
▁toán	-8.72754
▁đàn	-8.73091
▁J	-8.7357
le	-8.73699
▁lĩnh	-8.7398
▁ngắn	-8.7404
▁chim	-8.74067
▁đĩa	-8.74095
xảy	-8.74179
▁nối	-8.74278
▁ấy	-8.74551
▁sóng	-8.74805
▁Giang	-8.74907
▁sâu	-8.74908
▁Đến	-8.75093
▁nuôi	-8.75222
▁V	-8.75267
▁gì	-8.75901
H	-8.76496
▁hôn	-8.76791
la	-8.76912
▁19	-8.76978
▁dung	-8.7699
▁đai	-8.77096
▁khó	-8.77323
▁Đài	-8.77829
▁chú	-8.7786
▁hồi	-8.77863
▁Điều	-8.77891
▁m	-8.78075
▁đài	-8.78109
▁trả	-8.78332
▁trạng	-8.78375
▁nhìn	-8.78465
x	-8.78638
▁The	-8.78692
▁Na	-8.7892
▁trắng	-8.78998
es	-8.79124
▁cụ	-8.79198
▁Con	-8.79537
▁rút	-8.79618
▁lửa	-8.79633
▁Hy	-8.79679
▁Quảng	-8.79802
▁Sa	-8.79806
▁chuyện	-8.80008
▁O	-8.80246
▁thiếu	-8.8055
P	-8.80689
▁2007	-8.80879
▁xung	-8.80954
▁Hiệp	-8.81114
▁sai	-8.81161
▁Sự	-8.81744
▁đen	-8.81973
▁ngựa	-8.82012
▁thuận	-8.82317
The	-8.8232
▁Ủy	-8.8261
▁cũ	-8.82628
▁ốc	-8.83139
▁vượt	-8.83191
▁24	-8.83332
▁Đậu	-8.83705
tiếng	-8.83867
▁chiếu	-8.84058
F	-8.84346
5	-8.84443
4	-8.84727
▁song	-8.85065
▁mối	-8.85464
▁vốn	-8.85467
▁Chu	-8.85713
▁trụ	-8.85883
▁sứ	-8.86117
▁luôn	-8.86175
▁thơ	-8.86245
▁Thị	-8.86253
▁tòa	-8.86461
▁bào	-8.86536
▁2006	-8.86545
▁21	-8.86555
▁Thượng	-8.86727
▁xử	-8.86869
▁đầy	-8.86909
▁loạt	-8.87014
▁tái	-8.87057
▁100	-8.87076
▁bức	-8.87212
▁N	-8.8736
z	-8.8745
da	-8.87609
no	-8.87686
▁khá	-8.87851
▁súng	-8.8788
▁băng	-8.87973
▁niệm	-8.88156
▁Đường	-8.88615
▁càng	-8.88634
E	-8.88837
▁mại	-8.88844
man	-8.88876
an	-8.89
▁chủng	-8.89207
▁1999	-8.89299
▁linh	-8.89312
▁to	-8.89683
▁khối	-8.89818
0	-8.89934
▁ủy	-8.90036
▁mua	-8.90183
▁Ninh	-8.9037
▁31	-8.90587
▁trái	-8.90672
▁San	-8.90721
▁Mặc	-8.9083
▁dễ	-8.90978
ma	-8.91038
▁mạch	-8.91262
▁y	-8.9127
▁tội	-8.91299
▁phối	-8.91626
▁trục	-8.91748
▁da	-8.91782
▁Hai	-8.91789
▁bụng	-8.91905
▁Triều	-8.91962
▁Cổ	-8.92125
▁soát	-8.9238
▁Gia	-8.926
▁suất	-8.93678
▁tạp	-8.93832
▁suy	-8.93935
▁thử	-8.93962
▁Erebidae	-8.93975
▁22	-8.93978
▁Phó	-8.93981
▁trách	-8.94573
▁hãng	-8.95173
▁kiếm	-8.95191
▁Di	-8.95208
▁suốt	-8.9524
▁2008	-8.95347
▁lòng	-8.95776
▁đào	-8.95871
▁rời	-8.95946
▁căn	-8.96124
▁Mặt	-8.96329
▁đích	-8.9633
▁23	-8.96424
▁trì	-8.96428
▁góp	-8.96592
▁tín	-8.9661
▁dấu	-8.96802
▁kịch	-8.96819
▁dần	-8.97005
▁đảm	-8.97191
▁kiểu	-8.97201
▁Trước	-8.97231
▁đỏ	-8.97457
▁Yên	-8.97633
▁Bảo	-8.97642
▁tầng	-8.97691
▁Thủ	-8.98099
▁đảng	-8.98302
▁Với	-8.98932
▁chuyến	-8.9942
▁thịt	-8.99932
▁vừa	-9.00129
▁vợ	-9.00206
▁Khu	-9.00344
▁ương	-9.0042
▁Lạp	-9.00586
G	-9.00741
▁Giám	-9.00759
▁ma	-9.00926
▁xét	-9.01061
▁trời	-9.01234
▁phí	-9.01375
▁tước	-9.01877
▁cuốn	-9.01929
▁trưng	-9.02092
▁mực	-9.0229
▁Thánh	-9.02331
▁dữ	-9.02581
▁nghi	-9.02632
▁tò	-9.02747
▁đạn	-9.0283
▁truyện	-9.02854
▁Việc	-9.02964
▁lược	-9.03057
▁xuyên	-9.03124
et	-9.03174
▁ủng	-9.03254
▁kính	-9.03303
▁and	-9.03519
▁Đào	-9.03538
▁Quang	-9.03748
▁tải	-9.03865
▁buổi	-9.03922
▁loạn	-9.04128
▁diệt	-9.0417
▁vành	-9.0441
▁thật	-9.04442
ka	-9.04496
▁Viện	-9.04606
▁Y	-9.04633
▁đột	-9.04746
▁mã	-9.04818
▁Thụy	-9.05269
▁vò	-9.05305
▁rêu	-9.05393
▁hỏi	-9.0548
ne	-9.05539
▁Tổ	-9.05541
▁xứ	-9.05544
▁tuy	-9.05806
▁Úc	-9.05924
▁cập	-9.0601
▁xanh	-9.06127
▁hủy	-9.06382
▁ngăn	-9.06489
ra	-9.06551
▁28	-9.06644
▁hàm	-9.06999
▁chóng	-9.07042
▁Vì	-9.07048
▁nổ	-9.07098
▁đăng	-9.0722
▁phê	-9.07226
▁2000	-9.07342
▁Ichneumonidae	-9.07542
▁lính	-9.07577
do	-9.0776
▁kẻ	-9.07985
ri	-9.08102
▁thụ	-9.08245
▁đem	-9.0835
▁Tập	-9.08453
▁thừa	-9.0858
▁kê	-9.08638
▁2004	-9.08664
▁TCN	-9.08705
▁Huyện	-9.08811
▁khóa	-9.09001
▁Nhưng	-9.09698
▁26	-9.09973
al	-9.0998
▁đương	-9.10132
▁kháng	-9.10192
▁lao	-9.10196
▁Cơ	-9.10289
▁hiệp	-9.10406
N	-9.10562
▁Lâm	-9.1063
▁27	-9.10775
▁Phú	-9.1084
▁2001	-9.10869
▁Al	-9.11011
▁chúa	-9.11049
▁Phương	-9.11079
te	-9.11114
▁nạn	-9.11516
▁W	-9.11579
to	-9.11881
▁Phần	-9.11987
▁lượt	-9.12018
▁hạm	-9.12277
▁tu	-9.12557
▁Karnataka	-9.12594
>	-9.12749
▁vọng	-9.12943
▁nhờ	-9.13077
▁la	-9.13124
th	-9.1316
▁Quận	-9.13377
▁nguy	-9.13425
▁Ma	-9.13454
▁2009	-9.13489
▁bước	-9.13494
▁Ai	-9.13534
▁máu	-9.13642
O	-9.13651
▁giác	-9.1371
▁ánh	-9.13932
▁thí	-9.14064
▁huấn	-9.14167
▁Hymenoptera	-9.14236
▁“	-9.14251
▁tách	-9.14381
▁Xuân	-9.14586
▁đẩy	-9.14862
li	-9.15006
▁khắp	-9.15262
▁mộ	-9.15425
▁Phật	-9.15583
▁tehsil	-9.15734
▁Chí	-9.15832
▁Sư	-9.16075
▁chảy	-9.1609
▁thoại	-9.16375
▁nghe	-9.16408
▁hương	-9.16554
▁Rêu	-9.16576
▁thiện	-9.16633
▁Trương	-9.16914
se	-9.16943
▁thú	-9.1726
▁Định	-9.17271
▁trừ	-9.17578
▁Phong	-9.17698
▁cắt	-9.17817
▁đẹp	-9.17916
”	-9.17975
▁mm	-9.18104
▁trào	-9.18295
sa	-9.18305
▁Trái	-9.18386
▁họa	-9.18462
▁xâm	-9.18539
ca	-9.18683
▁trải	-9.19032
▁quý	-9.19095
▁lai	-9.19233
R	-9.19268
ed	-9.19488
J	-9.19496
▁chỗ	-9.19614
▁cường	-9.19627
▁điển	-9.19836
▁hiểm	-9.1999
I	-9.20083
▁đọc	-9.20197
▁cậu	-9.20248
▁phù	-9.20455
▁phút	-9.20786
▁Ngô	-9.21027
▁sửa	-9.21032
▁liệt	-9.21089
▁liền	-9.21123
▁đe	-9.2123
▁gửi	-9.2144
▁2005	-9.21535
▁hiểu	-9.21612
▁bày	-9.2167
▁cầm	-9.21885
▁tuyệt	-9.22142
▁tầm	-9.22751
▁cai	-9.22864
▁nâng	-9.23255
▁Lai	-9.23384
▁2002	-9.23405
▁mưu	-9.23422
▁sơ	-9.2385
▁dọa	-9.23898
▁bão	-9.23994
▁Hiện	-9.24122
▁X	-9.24324
▁thăng	-9.24465
▁nhiễm	-9.24476
▁tán	-9.2453
▁Ca	-9.24658
▁29	-9.24659
▁sớm	-9.25552
▁dọc	-9.25602
▁Nhiều	-9.2573
6	-9.25745
ing	-9.2575
▁Để	-9.25996
▁tù	-9.26122
▁50	-9.26249
▁săn	-9.26254
▁thoát	-9.26315
▁nửa	-9.26537
re	-9.26806
▁Du	-9.2685
▁thôn	-9.26852
▁Tam	-9.26926
▁khắc	-9.26956
ni	-9.27172
▁hơi	-9.273
▁giản	-9.27322
▁chó	-9.27557
▁Hưng	-9.27857
▁Lương	-9.28318
▁bò	-9.28358
▁Về	-9.28535
▁Tòa	-9.28611
▁sắt	-9.28624
▁chồng	-9.28636
▁dạy	-9.28655
▁quán	-9.28703
▁Đất	-9.28853
▁khảo	-9.28907
▁lông	-9.28956
▁dầu	-9.29168
▁thăm	-9.29192
el	-9.29533
7	-9.296
▁De	-9.29698
▁bí	-9.29789
▁sáu	-9.30029
▁phó	-9.30218
▁chỉnh	-9.30405
▁Cục	-9.3041
▁kênh	-9.30756
▁[[	-9.31067
▁ẩm	-9.31077
▁Nếu	-9.31488
di	-9.31576
▁John	-9.31582
▁màn	-9.31671
▁ngầm	-9.3185
▁xin	-9.31922
▁đỉnh	-9.32015
▁thẳng	-9.32147
ar	-9.32155
▁xúc	-9.32174
nh	-9.32418
▁thước	-9.32426
▁tan	-9.32485
ly	-9.32524
▁ấn	-9.3276
▁Vĩnh	-9.32972
▁xạ	-9.33007
ata	-9.33065
▁Chrysomelidae	-9.33132
▁Đạo	-9.33155
▁Paris	-9.33878
▁ai	-9.34113
▁bom	-9.34185
▁Số	-9.34193
▁formula	-9.34211
▁40	-9.34257
br	-9.34323
]]	-9.34628
▁tá	-9.34742
ton	-9.34855
▁Canada	-9.34872
▁cỏ	-9.34919
▁tiện	-9.34951
▁thao	-9.35025
V	-9.35364
▁tháp	-9.35512
▁chặn	-9.35679
▁lâm	-9.3582
8	-9.36015
▁chẳng	-9.36069
▁côn	-9.36117
ro	-9.36307
▁Phúc	-9.36327
▁Hồi	-9.36398
▁truy	-9.36409
▁trại	-9.36625
▁đúng	-9.36839
▁gắn	-9.3684
ensis	-9.36845
▁khiển	-9.36886
▁sẵn	-9.36957
▁Ngọc	-9.36959
▁vuông	-9.36982
▁Tiểu	-9.36987
▁Brasil	-9.37066
▁Tỉnh	-9.37078
W	-9.37266
▁áo	-9.3728
▁ngược	-9.37301
▁ví	-9.37384
▁Tử	-9.37506
▁ex	-9.376
▁York	-9.37692
▁2012	-9.37718
▁2016	-9.37739
▁nghiêm	-9.37751
▁thù	-9.3786
▁rơi	-9.38104
▁tri	-9.38143
▁bậc	-9.38251
▁lương	-9.38353
▁Hạ	-9.38403
▁lẫn	-9.38515
▁tặng	-9.38589
▁Tên	-9.38597
ti	-9.38878
▁hấp	-9.39035
▁Áo	-9.39115
▁ly	-9.39553
▁bãi	-9.39618
▁tránh	-9.39631
▁Loan	-9.3969
co	-9.39886
]	-9.3992
▁Me	-9.40148
▁lẽ	-9.4049
ba	-9.40597
▁thác	-9.40599
▁thượng	-9.40782
▁Tống	-9.41004
▁siêu	-9.41023
me	-9.41361
▁Arctiinae	-9.41415
10	-9.41582
▁League	-9.42137
▁nắm	-9.42203
▁Thời	-9.42231
▁hút	-9.42407
▁Chỉ	-9.42498
▁vĩ	-9.4251
▁2015	-9.42619
ya	-9.4274
▁khô	-9.42769
aceae	-9.42823
▁2014	-9.42837
▁Thiến	-9.42955
▁Cách	-9.43214
▁Trịnh	-9.43297
▁trồng	-9.43406
▁Thủy	-9.43515
▁game	-9.43563
▁xương	-9.4368
▁Cha	-9.43697
▁đuổi	-9.43704
▁quảng	-9.43828
▁gà	-9.43923
▁thiệu	-9.43953
▁Quan	-9.44127
▁bác	-9.44217
▁hoá	-9.4429
▁gắng	-9.44299
▁cm	-9.44347
▁quang	-9.44349
▁USD	-9.44352
▁bề	-9.44384
▁sung	-9.44389
▁Phổ	-9.44481
▁2003	-9.44595
▁chùa	-9.44602
▁Thông	-9.44648
▁Cập	-9.44726
▁ổn	-9.44789
▁quê	-9.44829
▁Tự	-9.44916
▁đo	-9.45007
▁lo	-9.45478
18	-9.45588
▁Cuối	-9.45619
▁Đình	-9.45677
▁2013	-9.45716
▁nhớ	-9.45755
▁ô	-9.45777
▁đáp	-9.45782
▁[	-9.45914
▁dây	-9.46128
▁nhẹ	-9.46205
▁Phạm	-9.46252
▁sợ	-9.46269
▁phiếu	-9.46463
▁thuyền	-9.46491
▁Địa	-9.46693
▁đoán	-9.46787
▁Đội	-9.46937
▁ngờ	-9.47058
▁đau	-9.47073
một	-9.47083
son	-9.47218
▁ưu	-9.47247
▁quỹ	-9.47261
▁Khánh	-9.47418
▁khăn	-9.47445
▁ràng	-9.47609
▁Bồ	-9.4775
ko	-9.48183
▁nhật	-9.48223
▁Cá	-9.48241
ki	-9.48269
▁video	-9.48279
!	-9.48316
j	-9.48343
▁tai	-9.4837
lo	-9.48592
▁1990	-9.48611
▁phán	-9.4877
▁trích	-9.48933
▁hè	-9.4894
▁khoản	-9.4897
▁Linh	-9.49026
▁thánh	-9.49059
▁Hậu	-9.49071
▁Cuộc	-9.49137
▁lan	-9.49143
▁cờ	-9.49149
▁nghỉ	-9.49366
▁lựa	-9.49429
▁đỡ	-9.49479
ana	-9.49674
at	-9.50246
▁Triệu	-9.50456
▁chữa	-9.5053
os	-9.50611
▁nghề	-9.50736
▁dưỡng	-9.50774
land	-9.50842
▁đuôi	-9.50888
▁dậy	-9.50935
▁Chương	-9.50989
▁Trên	-9.5104
▁cựu	-9.51055
▁tỉ	-9.51096
▁lưng	-9.51149
▁đền	-9.5122
▁gió	-9.51239
▁rắn	-9.51249
▁tàn	-9.51329
▁Sân	-9.51331
▁Điển	-9.51424
▁tắc	-9.51425
▁họp	-9.51497
▁Nghệ	-9.51718
▁nghĩ	-9.51896
▁nhánh	-9.51932
▁trú	-9.52278
▁chuồn	-9.52328
▁Ả	-9.52361
it	-9.52391
chi	-9.52532
mi	-9.52723
▁cặp	-9.52924
▁bé	-9.53035
▁bật	-9.53134
▁cấm	-9.53197
▁lui	-9.53209
▁uống	-9.53421
▁món	-9.53472
▁thậm	-9.53478
w	-9.5349
▁Đối	-9.53712
▁Mông	-9.53723
▁mời	-9.53832
▁khủng	-9.53844
▁tống	-9.53845
▁tắt	-9.53942
▁Tôn	-9.5399
▁Cho	-9.54047
▁thiệt	-9.54136
▁Khoa	-9.54251
▁al	-9.54309
▁Thạch	-9.54313
▁cảng	-9.5461
▁hùng	-9.54652
▁trữ	-9.54882
▁chối	-9.54922
▁mưa	-9.54938
▁vườn	-9.54971
▁nỗ	-9.55083
▁Ar	-9.55144
▁El	-9.55426
▁ngang	-9.55451
▁gỗ	-9.55464
▁Sĩ	-9.55467
▁hài	-9.55822
▁giảng	-9.55828
U	-9.55873
▁Hóa	-9.55956
▁Elateridae	-9.56008
▁Cũng	-9.5601
▁thua	-9.56038
▁Le	-9.5616
▁hoang	-9.56201
▁sắp	-9.56364
▁dặm	-9.56395
ha	-9.56405
▁Tấn	-9.56425
▁ngân	-9.56557
▁sa	-9.5664
▁giấy	-9.56823
▁hôm	-9.56862
▁phức	-9.56864
▁1998	-9.57212
▁trốn	-9.57476
▁dãy	-9.5754
ella	-9.57559
▁Sở	-9.57634
▁Chúa	-9.57696
▁So	-9.577
▁kì	-9.57875
17	-9.57899
9	-9.57963
▁mũi	-9.57993
ke	-9.58164
▁tàng	-9.58186
▁Thống	-9.58279
▁2017	-9.58737
▁trăm	-9.58744
ina	-9.58748
▁Đầu	-9.58937
ic	-9.58969
▁cơn	-9.5903
▁bạc	-9.59191
▁rãi	-9.59195
ine	-9.59308
▁mẽ	-9.59368
▁Cùng	-9.59406
ea	-9.59552
▁phạt	-9.59665
▁bánh	-9.5984
ce	-9.59904
▁hổ	-9.59908
▁Ka	-9.60027
▁ống	-9.60076
▁mười	-9.60125
▁Phòng	-9.60155
▁Bài	-9.6029
▁World	-9.60393
▁Tiến	-9.60458
ry	-9.60468
▁nóng	-9.60592
ur	-9.60702
si	-9.6077
ii	-9.60776
▁III	-9.60872
▁Mùa	-9.60985
▁võ	-9.61052
▁tận	-9.61168
▁cân	-9.61279
▁đực	-9.61286
▁Hiến	-9.614
ga	-9.6157
▁1997	-9.61595
st	-9.62029
▁hồng	-9.62057
go	-9.62086
▁quyển	-9.62122
▁tờ	-9.62159
der	-9.62257
?	-9.62269
gi	-9.62304
▁Cảnh	-9.62441
▁ngọt	-9.62462
▁can	-9.62536
▁chấm	-9.62573
▁Vi	-9.62611
▁vong	-9.62652
▁Tần	-9.62769
▁ích	-9.6285
15	-9.62938
▁Crambidae	-9.63132
▁đẳng	-9.63235
▁Vân	-9.63271
▁khỏe	-9.63304
▁California	-9.63314
▁phường	-9.63744
or	-9.63878
▁chị	-9.64051
▁Co	-9.64148
▁Rập	-9.64254
▁dị	-9.64346
va	-9.64383
▁1991	-9.64453
▁Như	-9.6447
▁miễn	-9.64557
▁rượu	-9.64603
=	-9.64779
16	-9.64825
▁chinh	-9.64846
▁hỏa	-9.64911
▁Bí	-9.65086
▁Là	-9.65132
▁vỏ	-9.6526
▁vú	-9.65366
▁chép	-9.65374
▁dày	-9.6541
▁1980	-9.65541
▁Thu	-9.65681
▁Lực	-9.65731
▁Học	-9.65767
▁cừu	-9.65802
▁hiến	-9.65905
▁chắc	-9.65922
▁cự	-9.66029
▁Cup	-9.66173
▁Lục	-9.66262
▁Nghĩa	-9.66405
▁Đan	-9.66703
▁Kiến	-9.6673
▁Hệ	-9.67022
▁Bo	-9.67122
con	-9.67167
▁Thuận	-9.67181
▁Thiếu	-9.67312
mo	-9.67691
▁kém	-9.6802
tus	-9.68201
▁Đặc	-9.68298
nay	-9.68337
▁soạn	-9.68368
▁tùy	-9.68604
▁tia	-9.68882
ong	-9.68947
▁1992	-9.69397
▁bi	-9.69466
▁2018	-9.69521
▁tròn	-9.69544
▁trứng	-9.69591
▁1995	-9.6963
▁Philippines	-9.6982
▁Đoàn	-9.69908
▁hòn	-9.69988
▁vỡ	-9.70014
▁Sài	-9.70138
▁tụ	-9.70281
▁tim	-9.70356
▁bá	-9.70377
▁ẩn	-9.70406
▁Được	-9.70538
▁St	-9.70564
▁góc	-9.70691
▁Su	-9.70728
▁nhu	-9.70768
▁Nữ	-9.70788
▁tạm	-9.70906
ol	-9.70928
ji	-9.7097
X	-9.71023
bo	-9.71055
▁60	-9.71273
▁phe	-9.71274
ge	-9.71279
▁lối	-9.71291
12	-9.71309
▁Ngụy	-9.71357
▁xưa	-9.71475
▁Bọ	-9.71563
pa	-9.71652
▁vịnh	-9.71748
▁Thần	-9.71748
▁ngũ	-9.71757
▁đồn	-9.7182
Y	-9.71837
▁Z	-9.71963
▁hô	-9.71983
▁1993	-9.71995
za	-9.71998
▁Ko	-9.7211
▁pha	-9.72127
▁bèn	-9.72209
▁Tất	-9.72262
▁hiếm	-9.72308
▁2011,	-9.72421
▁tường	-9.72446
▁kg	-9.72684
▁ném	-9.72895
▁200	-9.72973
den	-9.72991
▁tấm	-9.73206
▁Phan	-9.73245
▁thuế	-9.73297
▁Hầu	-9.73323
▁đoạt	-9.7333
▁Sao	-9.73488
▁Điện	-9.7365
▁Sinh	-9.73731
▁Tri	-9.73787
ter	-9.73812
▁rối	-9.73828
▁2004,	-9.73976
▁Tào	-9.74155
▁Mi	-9.74244
▁1996	-9.74337
▁chu	-9.74376
▁Gòn	-9.7448
▁đòi	-9.74487
▁vẻ	-9.74657
▁mệnh	-9.74715
▁lỵ	-9.74724
▁bảy	-9.74732
▁Trichoptera	-9.74734
▁đám	-9.74956
▁Pa	-9.75247
▁2005,	-9.75284
▁kia	-9.75352
▁Limoniidae	-9.75492
▁đức	-9.7562
▁cục	-9.75622
▁nâu	-9.75708
▁đứa	-9.75864
▁mạc	-9.759
▁Re	-9.75938
▁Hữu	-9.75949
▁In	-9.76123
▁Huy	-9.76156
chữ	-9.76209
▁Câu	-9.76259
▁voi	-9.76726
▁ga	-9.7674
▁mỏ	-9.76752
▁đợt	-9.76878
▁Cả	-9.7688
▁lạnh	-9.76993
▁Mo	-9.77086
▁trống	-9.77087
▁Lễ	-9.77096
▁lưới	-9.77126
▁bạo	-9.77163
▁thỏa	-9.77174
▁hư	-9.77208
▁Lúc	-9.77238
id	-9.77288
▁cháu	-9.77327
▁Man	-9.77496
▁giọng	-9.77539
as	-9.7755
▁lỗi	-9.77594
▁2015,	-9.77682
▁Đà	-9.77703
▁khán	-9.77813
▁vẽ	-9.77814
▁Tuyên	-9.7799
▁mái	-9.7807
▁Và	-9.78079
▁Ví	-9.78178
▁xu	-9.78211
▁Tương	-9.78301
▁1940	-9.78464
▁Mai	-9.78521
▁hà	-9.78683
▁2016,	-9.78727
tên	-9.78789
▁mong	-9.78816
▁Lộc	-9.78947
▁sót	-9.78969
▁giàu	-9.79016
▁Syria	-9.79331
▁Hi	-9.79665
▁Môi	-9.79807
▁Uy	-9.79872
▁Vua	-9.79896
▁tổn	-9.80024
▁Lạc	-9.80102
▁cháy	-9.80332
▁Cẩm	-9.80529
▁Nghị	-9.80591
▁Thường	-9.8062
▁2012,	-9.80645
▁Da	-9.80661
▁Trận	-9.80847
▁Ly	-9.80848
20	-9.80851
▁2013,	-9.80995
▁khổ	-9.80997
▁Viên	-9.81066
▁nhảy	-9.81067
▁thai	-9.81101
▁biện	-9.81125
▁dàng	-9.81149
▁Ta	-9.81192
▁ngừng	-9.8127
▁Mỗi	-9.81395
▁Tiền	-9.81466
▁Go	-9.81476
▁hung	-9.81515
▁Saint	-9.81607
▁2014,	-9.81621
▁Se	-9.81655
▁huyết	-9.81751
▁đốt	-9.81854
▁mắc	-9.81989
▁thẩm	-9.82047
▁Sông	-9.82208
▁Tachinidae	-9.82224
ten	-9.82357
▁Toàn	-9.82451
▁nghèo	-9.82527
▁buôn	-9.82655
▁Séc	-9.82712
▁Ga	-9.82745
▁nguyện	-9.8277
▁khám	-9.829
▁sóc	-9.82971
▁chặt	-9.83242
▁Indonesia	-9.83444
▁ha	-9.83788
▁khơi	-9.8393
▁1994	-9.83951
▁nhắc	-9.84005
▁2007,	-9.84068
11	-9.84102
▁chạm	-9.84156
▁cướp	-9.84368
▁lôi	-9.84549
14	-9.84655
▁Bá	-9.84719
il	-9.8479
▁Cát	-9.84888
▁Trang	-9.84926
▁Lào	-9.84934
vi	-9.84952
▁sàng	-9.84973
▁phỏng	-9.85126
▁sub	-9.85251
▁đua	-9.85256
é	-9.8536
▁san	-9.85554
▁1989	-9.8577
▁điệu	-9.85849
▁d	-9.85889
▁cất	-9.85915
▁chuỗi	-9.86142
▁thạch	-9.86203
▁trúng	-9.86207
▁chăm	-9.86229
▁chậm	-9.86283
▁Kết	-9.86321
▁dứt	-9.86469
ner	-9.86732
▁Luật	-9.8689
▁thiểu	-9.87014
▁Ngay	-9.8704
ja	-9.87172
▁von	-9.8727
wa	-9.87425
La	-9.87466
▁Hoàn	-9.87481
▁Quý	-9.87657
▁Bạch	-9.87737
▁mồi	-9.87767
▁Hungary	-9.87866
les	-9.88033
▁xưng	-9.88038
▁thảm	-9.88111
▁ám	-9.8838
▁2008,	-9.88389
▁chắn	-9.88437
▁khấu	-9.88459
▁giam	-9.88601
▁2009,	-9.8867
▁vạn	-9.88696
▁1970	-9.8889
▁Tu	-9.89059
▁Ne	-9.89313
▁Israel	-9.89378
▁dõi	-9.89982
ck	-9.90046
▁Cầu	-9.90067
▁'	-9.90227
30	-9.90287
▁Dự	-9.90292
▁web	-9.904
ể	-9.90481
▁viễn	-9.90482
ae	-9.90498
aria	-9.90612
▁1988	-9.90635
▁tám	-9.90689
▁Hành	-9.90904
▁chở	-9.91129
bi	-9.9115
▁Li	-9.91273
▁tọa	-9.91354
ve	-9.91511
▁Ra	-9.91522
▁cỡ	-9.9154
▁1960	-9.9156
▁cột	-9.91613
▁Ni	-9.91626
▁2006,	-9.91683
▁Võ	-9.91944
▁khái	-9.9229
▁George	-9.92314
▁hy	-9.92407
▁vinh	-9.9257
▁Phát	-9.9261
▁tệ	-9.92639
▁Po	-9.92843
▁khuẩn	-9.92917
▁đồi	-9.93017
mer	-9.93045
▁Biển	-9.93055
▁Lo	-9.9326
|	-9.93266
▁Tính	-9.93266
▁1986	-9.93271
người	-9.93275
<	-9.93385
▁sáp	-9.93464
ley	-9.93476
▁ranh	-9.93494
▁2017,	-9.93497
un	-9.9355
▁Ngoại	-9.93608
▁Album	-9.93968
▁tảng	-9.94258
có	-9.94514
▁tiêm	-9.9479
▁1975	-9.94916
oides	-9.94919
one	-9.94998
▁ngọn	-9.95321
▁cam	-9.95393
▁co	-9.95449
ek	-9.95658
▁dư	-9.95747
▁lái	-9.95748
▁James	-9.958
▁Pro	-9.95827
▁đón	-9.95928
lin	-9.95953
▁ninh	-9.95972
▁khẳng	-9.96016
▁Xuyên	-9.96041
▁Hương	-9.96079
▁Dung	-9.96146
▁Nhóm	-9.96176
▁cốt	-9.96217
▁Lịch	-9.96231
▁kêu	-9.96257
pe	-9.96267
ru	-9.96295
▁thả	-9.96318
hay	-9.96468
▁ác	-9.96509
▁chứ	-9.96719
▁Kông	-9.9673
▁đẻ	-9.96762
▁Cung	-9.96994
▁United	-9.97005
▁Bên	-9.97045
▁chín	-9.97081
alis	-9.97112
▁chìm	-9.9725
▁Thư	-9.97289
▁1985	-9.97395
▁Tiêu	-9.97469
500	-9.97603
▁kèm	-9.9764
▁đầm	-9.97696
▁Mạc	-9.97703
▁No	-9.97717
không	-9.97855
tes	-9.97884
▁William	-9.98086
▁ngàn	-9.98103
▁gấp	-9.98136
com	-9.98176
▁cãi	-9.98221
▁phu	-9.98249
gen	-9.98359
▁dừng	-9.98419
▁Dưới	-9.98468
▁Ha	-9.98489
▁tần	-9.98561
ver	-9.98628
▁Be	-9.98665
▁kiêm	-9.98812
▁miệng	-9.9882
▁răng	-9.98951
▁1987	-9.99026
▁axit	-9.99084
▁vết	-9.99101
▁sánh	-9.99125
▁khuyến	-9.99218
▁hỗn	-9.99277
▁Phiên	-9.99307
▁1984	-9.99371
▁Bằng	-9.99397
▁Dù	-9.99463
▁Trời	-9.99479
▁Grand	-9.99506
▁hứng	-9.99516
▁Si	-9.99526
Z	-9.99574
▁Đinh	-9.99903
▁ngồi	-10.0004
▁quen	-10.0004
▁vui	-10.0004
osa	-10.0014
▁đậu	-10.0018
cha	-10.0021
▁trạm	-10.0026
▁Duy	-10.0035
▁tân	-10.0049
▁Paul	-10.005
su	-10.0062
▁Thọ	-10.0064
▁Sử	-10.0069
▁kỵ	-10.0074
so	-10.0079
▁nương	-10.008
▁Ki	-10.0082
▁ven	-10.0093
▁vở	-10.0103
▁vững	-10.0104
em	-10.0113
▁80	-10.0115
▁Ireland	-10.0117
lis	-10.0118
▁dinh	-10.0121
▁Thân	-10.0126
bu	-10.0133
’	-10.014
odes	-10.0174
lu	-10.0181
▁triết	-10.0192
▁Luân	-10.0192
▁Chân	-10.0192
▁West	-10.0197
▁thuê	-10.022
▁Mar	-10.0224
▁cát	-10.0227
▁sữa	-10.0227
▁dã	-10.0242
ku	-10.0247
▁dàn	-10.0251
▁thải	-10.0265
ul	-10.0276
▁0	-10.028
▁lũng	-10.0281
▁°	-10.0284
▁Mạch	-10.0286
▁+	-10.0288
▁sẻ	-10.0293
▁Biên	-10.0297
▁Mục	-10.0298
▁Windows	-10.0299
gu	-10.0304
sh	-10.0305
▁kỉ	-10.0308
cho	-10.0315
▁may	-10.0315
▁Đó	-10.0317
▁Thương	-10.0317
▁ức	-10.0332
▁for	-10.0343
be	-10.0343
▁đệ	-10.0353
▁Campuchia	-10.0359
ria	-10.0366
▁Tề	-10.0366
▁lỗ	-10.0373
ceae	-10.0379
▁cương	-10.0379
▁non	-10.0385
▁1981	-10.0387
▁Phước	-10.0392
▁Malaysia	-10.042
atus	-10.0422
▁Hạm	-10.0422
▁Hàng	-10.0436
▁=	-10.0446
▁v	-10.0449
▁lang	-10.0449
ger	-10.0459
▁kho	-10.0461
po	-10.0465
▁ung	-10.0465
▁35	-10.0479
▁viêm	-10.0493
▁mảnh	-10.0494
▁tựa	-10.05
▁Trị	-10.0508
▁Vùng	-10.0517
19	-10.0535
▁My	-10.055
au	-10.0551
▁cản	-10.0552
▁tông	-10.0555
sen	-10.0557
▁Trọng	-10.0561
▁bối	-10.057
▁che	-10.0573
▁lợn	-10.0585
▁Chiêu	-10.059
▁1982	-10.0591
▁Phụ	-10.0592
ium	-10.0592
▁khuôn	-10.0595
▁cụm	-10.0595
▁1945,	-10.0598
danh	-10.0598
▁bụi	-10.0601
ula	-10.0637
▁Vinh	-10.0647
ir	-10.0651
21	-10.0653
▁khích	-10.0658
▁Ukraina	-10.0658
▁Mexico	-10.0672
▁trầm	-10.0672
▁long	-10.0674
▁<	-10.0692
▁David	-10.0708
▁gai	-10.0719
▁1983	-10.0726
▁Hợp	-10.0728
▁Ngân	-10.0744
▁Or	-10.0745
▁2000,	-10.0764
ura	-10.0765
▁70	-10.0787
mm	-10.0794
▁Tham	-10.0805
▁México	-10.0845
trong	-10.0855
▁ngư	-10.0859
▁Robert	-10.0879
▁Phim	-10.0881
▁Song	-10.0895
▁tam	-10.0901
▁hẹp	-10.0931
▁chấn	-10.0931
▁trương	-10.0937
ze	-10.0949
ville	-10.0953
▁FC	-10.0962
▁Bỉ	-10.0967
▁canh	-10.0968
▁hắn	-10.0985
▁Bu	-10.0994
▁phúc	-10.0996
Đức	-10.0999
▁Thiết	-10.1
▁Huế	-10.1004
▁Tác	-10.1008
▁lồ	-10.1016
ber	-10.1019
▁thầy	-10.1029
▁màng	-10.1042
▁Lu	-10.1042
tis	-10.1045
▁Đa	-10.1046
▁dược	-10.105
▁lạ	-10.1064
▁khổng	-10.1067
▁Giao	-10.1067
25	-10.1072
ion	-10.1073
▁Charles	-10.1097
▁thận	-10.1103
▁45	-10.1109
ad	-10.1113
men	-10.1117
don	-10.1128
▁lọt	-10.1135
▁ngại	-10.1136
13	-10.1148
▁sạch	-10.115
▁To	-10.1167
▁Ro	-10.1168
tra	-10.1173
iana	-10.1203
▁Đôn	-10.1215
▁1930	-10.122
▁1945	-10.1238
cy	-10.1253
từ	-10.1254
▁Lăng	-10.1261
ov	-10.1275
▁Liêu	-10.1277
▁muối	-10.1287
▁chăn	-10.1288
▁Tài	-10.1291
▁Henry	-10.1292
▁thoái	-10.1294
dy	-10.1298
▁gen	-10.1303
ler	-10.1304
▁xuân	-10.1307
năm	-10.1309
▁1979	-10.1311
▁mọc	-10.132
▁Khoảng	-10.1344
▁Asilidae	-10.1346
▁úy	-10.1348
▁sụp	-10.1351
▁Singapore	-10.1351
▁thuần	-10.1353
▁1978	-10.1354
▁cán	-10.1362
▁hoảng	-10.1365
▁lọc	-10.1371
▁chợ	-10.1382
▁xấu	-10.1385
▁1942	-10.1388
▁thép	-10.1401
per	-10.1402
ny	-10.1422
▁mạn	-10.1437
▁tung	-10.1445
▁Bi	-10.1469
▁chuột	-10.1474
▁Argentina	-10.1475
▁2018,	-10.1476
rus	-10.1476
▁Giống	-10.1486
ica	-10.1488
tu	-10.1494
▁Zealand	-10.1506
▁lỏng	-10.1519
nia	-10.153
▁1950	-10.1535
▁Thứ	-10.154
ian	-10.154
▁1972	-10.1564
▁Nhạc	-10.1585
ph	-10.1591
▁mê	-10.1592
▁van	-10.1595
▁già	-10.1598
▁32	-10.1604
▁Cam	-10.1606
▁Colombia	-10.1611
ie	-10.1621
▁xám	-10.1626
á	-10.1632
▁Lee	-10.164
▁Quyền	-10.1643
▁ngợi	-10.1649
▁Car	-10.1653
▁Điền	-10.1658
▁1955	-10.1663
▁City	-10.1666
▁dường	-10.1686
▁thang	-10.1693
▁500	-10.1697
▁Thiệu	-10.1707
▁Âm	-10.1709
▁Maria	-10.1709
▁Tuấn	-10.1713
▁Hiếu	-10.1718
ty	-10.1721
▁Trưởng	-10.1726
▁phú	-10.1728
▁Đảo	-10.1742
▁Am	-10.1743
▁Hùng	-10.175
▁300	-10.1755
▁uy	-10.1758
▁duyệt	-10.1771
▁dao	-10.1772
▁Cúp	-10.1781
▁đập	-10.179
▁não	-10.1791
▁dâng	-10.1811
by	-10.1817
▁Ti	-10.1831
▁lẻ	-10.184
▁thám	-10.1842
▁Washington	-10.1856
▁hang	-10.1875
▁than	-10.1878
▁He	-10.1878
▁tháo	-10.1902
▁bọn	-10.191
yl	-10.1911
▁cà	-10.1915
í	-10.1924
mon	-10.1931
▁tiềm	-10.1936
▁Xương	-10.1936
▁London	-10.1952
▁Kế	-10.1985
▁hiển	-10.2004
▁chờ	-10.2007
▁cú	-10.2011
▁Huệ	-10.2013
▁bè	-10.2016
▁Ấu	-10.2016
du	-10.2028
ren	-10.2031
▁ép	-10.2032
▁Cần	-10.2034
▁Neuroptera	-10.2036
▁ghế	-10.2042
▁mãn	-10.2048
▁hào	-10.205
▁Cuba	-10.2051
▁yên	-10.2053
▁Tĩnh	-10.2063
▁Tàu	-10.2067
gan	-10.2075
ense	-10.2077
▁bọc	-10.2081
▁hoà	-10.209
▁Te	-10.2092
▁trông	-10.2094
▁8,	-10.2118
▁giận	-10.2119
▁nhấn	-10.2119
opsis	-10.2125
▁90	-10.2128
▁Hoài	-10.213
ifolia	-10.2131
▁lằn	-10.2133
▁chụp	-10.2136
▁cưới	-10.2147
sch	-10.2149
we	-10.2152
▁Tiếng	-10.2157
▁sơn	-10.2161
Ma	-10.2172
▁Phái	-10.2178
ho	-10.2181
▁Huấn	-10.2182
▁mèo	-10.2185
che	-10.219
▁ngủ	-10.2195
▁nét	-10.2199
▁Michael	-10.2203
▁Thực	-10.2219
▁Nông	-10.2221
tức	-10.2233
▁ngự	-10.224
▁thọ	-10.2245
▁IV	-10.2247
▁sợi	-10.2252
và	-10.2254
tr	-10.2258
am	-10.2258
Scarabaeidae	-10.2263
▁khoáng	-10.2278
▁Pe	-10.2278
▁trần	-10.228
ard	-10.2282
shi	-10.2296
▁gián	-10.2305
▁Còn	-10.2312
▁anime	-10.2315
▁dải	-10.2322
jo	-10.234
▁niềm	-10.2348
▁hạnh	-10.2354
▁bạch	-10.2356
▁1941	-10.2356
ers	-10.2359
▁đàm	-10.2359
ster	-10.2367
▁1976	-10.2368
▁chư	-10.2376
era	-10.2378
▁thách	-10.2381
▁Ô	-10.2386
ius	-10.2392
▁khung	-10.2395
▁nòng	-10.2418
▁Cửu	-10.2418
▁Truyền	-10.2429
▁lăng	-10.2439
ham	-10.2439
▁chút	-10.2445
ô	-10.2445
▁Vệ	-10.2469
▁trộn	-10.2493
24	-10.2501
lan	-10.2513
▁Bang	-10.2517
ân	-10.2533
▁Tứ	-10.2538
▁Nghi	-10.2544
mus	-10.2549
▁1973	-10.2551
▁ruột	-10.2552
▁Khang	-10.2559
zo	-10.256
▁Louis	-10.2598
▁1891	-10.2603
▁1974	-10.2605
▁Tô	-10.2607
▁Đỗ	-10.263
▁dáng	-10.2652
▁hộp	-10.2664
▁Đệ	-10.2667
san	-10.2679
▁Phía	-10.268
▁nghìn	-10.2682
▁ưa	-10.2682
min	-10.2689
▁tĩnh	-10.2691
▁1936	-10.2693
▁mát	-10.2699
như	-10.2707
▁Thomas	-10.2711
▁Cái	-10.2717
▁protein	-10.2724
ê	-10.2727
▁hề	-10.2749
▁xong	-10.2753
ak	-10.2765
sau	-10.2766
▁10,	-10.2767
des	-10.2768
▁nấm	-10.2769
tor	-10.2771
▁Chile	-10.2771
▁thợ	-10.2775
▁top	-10.2776
▁Ho	-10.2784
▁bia	-10.2786
▁mươi	-10.2797
han	-10.2807
▁tóc	-10.2808
▁ngập	-10.2811
▁khôi	-10.2821
▁1968	-10.2822
▁Chiếc	-10.2833
▁Iran	-10.2839
▁Fa	-10.2856
▁thiệp	-10.2873
▁Môn	-10.2873
▁Huyền	-10.2878
▁chàng	-10.2898
▁Per	-10.2898
▁bấy	-10.2913
▁Nghiên	-10.2915
▁ngực	-10.292
▁bột	-10.2927
▁Phủ	-10.293
▁Ya	-10.294
các	-10.2942
▁Thi	-10.2945
▁Quy	-10.2952
▁4,	-10.2952
▁mai	-10.2954
▁xoay	-10.2968
ci	-10.297
▁khuyên	-10.2978
▁Tướng	-10.2995
vo	-10.3002
▁đợi	-10.3006
▁5,	-10.3007
▁lúa	-10.3017
▁tứ	-10.3027
▁1977	-10.3037
▁kín	-10.3048
▁Bar	-10.306
▁Can	-10.3063
▁Nhất	-10.3069
Br	-10.3071
tia	-10.3076
▁Lãnh	-10.3078
▁Khắc	-10.3083
ris	-10.3096
io	-10.3101
▁hồn	-10.3105
▁1920	-10.311
▁Viễn	-10.3117
▁chôn	-10.3117
▁thằn	-10.312
▁nhuận	-10.3125
▁dịp	-10.3127
Sm	-10.3135
▁65	-10.3145
▁7,	-10.3147
▁phẳng	-10.3147
23	-10.3156
▁lân	-10.3165
▁Scotland	-10.3167
▁Thừa	-10.319
▁Van	-10.3194
▁mấy	-10.3197
▁2019	-10.3206
▁lật	-10.3212
Đ	-10.3215
▁Eu	-10.322
▁mơ	-10.3221
▁1944	-10.3226
▁nô	-10.3228
▁lắp	-10.3238
▁hoan	-10.3238
▁Berlin	-10.3251
▁Ngôi	-10.3252
▁nề	-10.326
▁Diên	-10.3265
▁ếch	-10.3271
▁Para	-10.328
▁sườn	-10.3284
▁Đặng	-10.3288
hoặc	-10.3294
sk	-10.3296
kh	-10.3314
50	-10.3326
pur	-10.3327
▁Cói	-10.3339
Q	-10.3343
▁Tokyo	-10.3355
▁Phân	-10.3357
▁lưỡng	-10.336
▁dâm	-10.3369
▁hầm	-10.3381
tz	-10.3388
▁Gi	-10.3391
mar	-10.3396
▁xưởng	-10.3396
▁tô	-10.3411
▁Martin	-10.3422
▁9,	-10.3433
▁Quần	-10.3437
▁kịp	-10.3439
▁Hình	-10.3447
▁hưu	-10.3459
▁As	-10.3464
▁rã	-10.3467
▁Apidae	-10.348
▁1939	-10.3481
▁Ja	-10.3481
▁Quản	-10.3485
▁1965	-10.3494
00	-10.3495
▁Tai	-10.3511
▁Động	-10.3514
▁tuyết	-10.352
zi	-10.352
▁1913	-10.3533
đ	-10.3537
▁1963	-10.3538
▁1967	-10.354
▁nạp	-10.354
ker	-10.3546
▁Simon	-10.3547
q	-10.3547
wi	-10.3557
▁Vị	-10.3564
ran	-10.3569
▁phẫu	-10.3573
▁điệp	-10.3574
▁dò	-10.3576
▁Friedrich	-10.3581
▁khen	-10.3588
▁Phù	-10.3596
▁Salticidae	-10.3598
▁Sách	-10.3602
▁Mộc	-10.361
▁căng	-10.3612
▁Lợi	-10.3618
▁Cảng	-10.362
▁1912	-10.362
▁Ku	-10.3623
▁nhạt	-10.3628
▁Sam	-10.3633
ano	-10.3633
ron	-10.3635
▁Entertainment	-10.3655
▁Cải	-10.3657
dia	-10.3657
▁Pic	-10.3669
▁Thuật	-10.367
▁Lao	-10.3673
▁Chánh	-10.3677
ut	-10.3684
▁Huân	-10.3684
tan	-10.3689
▁Ge	-10.369
▁Lam	-10.3693
▁1964	-10.3695
▁Hơn	-10.3701
▁Tình	-10.3736
▁Texas	-10.3747
▁nhượng	-10.3758
▁1943	-10.3759
▁Quyết	-10.3762
▁thung	-10.3762
rin	-10.3774
▁1908	-10.3775
▁del	-10.3776
ang	-10.3802
▁rau	-10.3811
▁You	-10.3811
▁ái	-10.3824
▁Thể	-10.3825
▁hâm	-10.3831
▁6,	-10.3833
▁Trà	-10.3836
▁nàng	-10.3845
▁bùng	-10.3846
▁Tường	-10.3872
▁Wales	-10.3873
▁sưu	-10.3877
▁lò	-10.3882
▁tươi	-10.39
▁1971	-10.3905
▁Vườn	-10.3918
om	-10.3923
▁thịnh	-10.3931
▁nỗi	-10.3932
▁South	-10.3936
ara	-10.3938
tum	-10.3938
▁Bệnh	-10.3942
▁vang	-10.3949
▁Jackson	-10.395
▁Est	-10.3973
▁11,	-10.3973
▁Mẹ	-10.3992
▁Tin	-10.3994
tha	-10.3994
▁bơi	-10.3999
atum	-10.4007
▁1929	-10.4015
nes	-10.4022
qui	-10.4025
▁lồng	-10.4027
▁1962	-10.4029
▁nhịp	-10.4043
▁$	-10.4043
▁Za	-10.4048
ei	-10.4059
▁1934	-10.4076
Alpes	-10.4079
▁Mao	-10.4097
ino	-10.41
▁hạc	-10.4122
▁ki	-10.4125
▁Richard	-10.4133
▁Thắng	-10.4138
▁Vụ	-10.4141
▁nhãn	-10.4142
▁1911	-10.4142
▁Yu	-10.4145
▁1925	-10.4152
ó	-10.4156
▁1905	-10.416
▁Tiếp	-10.4166
sur	-10.4169
▁dời	-10.4172
pi	-10.4182
▁ngã	-10.4186
▁Sải	-10.4188
▁liều	-10.4195
sia	-10.4205
▁Kitô	-10.4212
▁phế	-10.4215
France	-10.4218
eri	-10.4218
Tôi	-10.4221
tin	-10.4226
▁cổng	-10.4231
100	-10.4236
▁mỹ	-10.4242
35	-10.4247
ys	-10.4252
▁ngưỡng	-10.4257
ung	-10.4258
được	-10.4259
▁huyền	-10.4259
▁buồn	-10.4262
van	-10.4267
▁đựng	-10.4274
▁oxy	-10.4276
▁Ngũ	-10.4283
▁1938	-10.4284
▁Lang	-10.4296
▁1910	-10.4305
res	-10.4315
▁Hu	-10.4316
sky	-10.4323
▁Lữ	-10.4344
▁33	-10.4347
▁đèn	-10.4347
▁gỡ	-10.4347
22	-10.4356
▁Carl	-10.4358
40	-10.4358
ent	-10.4358
▁Los	-10.436
▁khứ	-10.4363
▁ghép	-10.4364
▁giây	-10.4369
▁Ri	-10.437
je	-10.4372
▁1954	-10.4375
▁Qua	-10.4375
▁Gu	-10.4382
200	-10.4388
▁đậm	-10.4407
▁Dịch	-10.4414
▁lắng	-10.4427
▁sàn	-10.4427
▁lầm	-10.4429
▁1906	-10.443
▁38	-10.4435
▁Trăng	-10.4443
▁Park	-10.4445
▁Kỹ	-10.4446
▁mãi	-10.4455
▁1935	-10.4459
▁nấu	-10.446
hi	-10.4467
▁Venezuela	-10.4468
▁1937	-10.4469
my	-10.4472
▁1900	-10.4479
▁suối	-10.4483
▁Nước	-10.4496
▁150	-10.4505
ví	-10.4509
▁Sang	-10.4514
▁đốm	-10.4516
▁đỗ	-10.4526
▁củng	-10.4535
op	-10.4541
ban	-10.4544
▁Tạng	-10.4548
▁Mu	-10.4557
ate	-10.4561
▁giỏi	-10.4564
▁Peru	-10.4565
▁bút	-10.4565
▁mây	-10.4572
▁36	-10.4577
ser	-10.4581
▁2003,	-10.4582
▁Dryopteridaceae	-10.4589
ông	-10.459
▁Phục	-10.4591
up	-10.4593
29	-10.4595
▁1969	-10.46
▁đáy	-10.4607
▁thuẫn	-10.4608
ell	-10.461
pan	-10.4616
▁cong	-10.4617
▁đáo	-10.4626
▁Bùi	-10.4647
▁tang	-10.4655
▁1946	-10.4662
ơ	-10.4663
▁Edward	-10.4664
▁Video	-10.4668
ở	-10.4669
▁dẹp	-10.467
fa	-10.4671
còn	-10.4674
▁soái	-10.4675
▁ấm	-10.4677
▁điền	-10.4685
▁1966	-10.469
▁Mật	-10.4703
▁su	-10.4709
▁sạn	-10.4711
ts	-10.4721
▁Lượng	-10.4741
▁Polypodiaceae	-10.4748
▁Ruồi	-10.4762
▁1923	-10.4764
▁1999,	-10.4771
▁va	-10.4775
▁En	-10.4775
the	-10.4781
nowiki	-10.4785
▁1958	-10.4786
▁treo	-10.4787
▁nồng	-10.4795
▁Pu	-10.481
▁tuân	-10.4816
&	-10.4821
▁1956	-10.4828
▁Moskva	-10.4829
▁Is	-10.483
▁Hàm	-10.4855
▁Wa	-10.4874
▁gợi	-10.4875
▁1931	-10.488
▁Sha	-10.4885
▁Hitler	-10.4894
▁lặp	-10.49
▁Karl	-10.4901
▁nở	-10.4904
▁ảo	-10.4905
▁Tom	-10.4912
▁Music	-10.4914
▁Đăng	-10.4914
▁leo	-10.4919
▁Thạnh	-10.493
▁Kính	-10.4931
▁Linyphiidae	-10.4934
ola	-10.4937
▁xứng	-10.4942
▁men	-10.4943
▁Internet	-10.4947
▁chẽ	-10.4951
▁Par	-10.4957
inae	-10.496
▁bồi	-10.4962
▁Cor	-10.497
▁per	-10.4972
▁f	-10.4974
▁59,5%	-10.4992
▁ấp	-10.5004
Ba	-10.501
▁Smith	-10.5018
▁România	-10.5029
▁Tú	-10.503
▁nêu	-10.5033
▁It	-10.5034
▁hỏng	-10.5039
ven	-10.5039
▁mượn	-10.5047
▁cạn	-10.5047
cus	-10.5051
▁vé	-10.5056
▁Brazil	-10.5064
▁1895	-10.5066
▁Cà	-10.5071
▁nhầm	-10.5089
▁bền	-10.509
▁lệch	-10.509
▁nhị	-10.5099
▁hứa	-10.511
26	-10.5117
har	-10.5133
oc	-10.5138
▁Mon	-10.5149
▁Thơ	-10.5151
▁Sch	-10.5153
▁đâu	-10.5158
Đại	-10.516
▁Nho	-10.5169
▁Báo	-10.5172
▁1909	-10.5173
ens	-10.5178
▁no	-10.5179
Người	-10.5185
ist	-10.5187
▁400	-10.5192
▁Manchester	-10.5194
berg	-10.5199
▁mảng	-10.5202
▁Tâm	-10.5203
▁1914	-10.5204
▁Cực	-10.5207
yo	-10.5209
sha	-10.522
▁Trinh	-10.5224
ah	-10.5226
▁thôi	-10.5228
▁cống	-10.5229
sta	-10.5233
▁phun	-10.5235
▁chuông	-10.5236
▁lành	-10.5237
27	-10.524
▁37	-10.5246
▁Ru	-10.5249
▁thỉnh	-10.525
icus	-10.5251
ey	-10.5251
▁Val	-10.5253
▁Hot	-10.5258
▁gạo	-10.5263
▁Pi	-10.5266
▁dỡ	-10.5269
án	-10.5273
▁Lập	-10.5274
▁thẻ	-10.5301
▁Cây	-10.5313
ps	-10.5314
▁Siêu	-10.5317
Billboard	-10.532
▁bê	-10.5325
▁Lỗ	-10.5332
▁hẳn	-10.5333
eo	-10.5346
▁Pan	-10.5347
▁nhì	-10.5351
▁táng	-10.5355
▁tật	-10.5358
▁1924	-10.5371
▁Ver	-10.5374
▁bây	-10.5374
▁1947	-10.5375
ju	-10.5383
kan	-10.5384
▁Chung	-10.5386
▁1961	-10.5396
▁quét	-10.5399
▁quái	-10.5403
▁1959	-10.5406
val	-10.5416
▁Tháp	-10.5418
▁1957	-10.5421
▁Joseph	-10.5427
ida	-10.5441
▁Vịnh	-10.5445
ling	-10.5448
▁Bayern	-10.5452
▁1916	-10.5457
▁Giới	-10.5459
▁Thiện	-10.5464
▁Australia	-10.5466
▁Lư	-10.5468
▁ruộng	-10.5469
▁Iraq	-10.5475
▁Ân	-10.5478
▁Bị	-10.5486
▁Nguyệt	-10.5491
▁Thục	-10.5492
▁1922	-10.5492
▁Q	-10.5497
▁Pakistan	-10.55
fer	-10.5503
▁Tùng	-10.5509
▁súc	-10.5518
▁nhắm	-10.5526
▁1953	-10.5528
▁dốc	-10.553
▁Roma	-10.5531
▁Em	-10.5536
▁mùi	-10.5537
fi	-10.5537
▁rock	-10.554
ita	-10.5547
▁lãm	-10.5549
▁Vạn	-10.5563
▁mừng	-10.5565
▁Guinea	-10.5567
▁Xa	-10.5568
anus	-10.557
ken	-10.5574
▁Cương	-10.5574
gar	-10.5576
ua	-10.5584
▁gan	-10.5587
▁Hướng	-10.5588
▁1951	-10.5591
▁1990,	-10.5595
anthus	-10.5595
▁quỳ	-10.561
▁Ben	-10.5614
▁lãng	-10.5619
dan	-10.5622
▁Tế	-10.5626
ok	-10.5631
Việt	-10.5638
▁Jean	-10.5643
▁sừng	-10.5646
▁tràn	-10.5649
▁Nigeria	-10.5668
ou	-10.5675
▁1932	-10.5685
▁đòn	-10.5699
45	-10.5704
▁Latinh	-10.5709
▁gói	-10.5709
▁Sal	-10.5711
▁đúc	-10.5718
▁điêu	-10.5731
nam	-10.5742
▁re	-10.5746
▁Gmina	-10.5748
▁trinh	-10.5748
lon	-10.5752
▁Cu	-10.5761
▁34	-10.5776
▁sổ	-10.578
kin	-10.5794
▁chục	-10.58
▁Love	-10.5803
▁mỏng	-10.5808
▁dội	-10.581
▁1933	-10.5819
▁1926	-10.582
ot	-10.5827
khoảng	-10.5829
▁Vô	-10.5834
▁hẹn	-10.5836
▁Peter	-10.5838
▁trâu	-10.5843
pen	-10.5845
▁Ecuador	-10.5847
eus	-10.5852
28	-10.5863
▁Đỏ	-10.5865
▁Đ	-10.5869
à	-10.5887
▁kiên	-10.5887
▁pro	-10.5892
cin	-10.5894
▁tốn	-10.5896
▁dê	-10.5899
▁Ju	-10.59
off	-10.5904
▁Nhờ	-10.5913
ức	-10.5916
lia	-10.5921
▁Microsoft	-10.5926
▁Quả	-10.5932
bao	-10.5936
▁vợt	-10.594
▁Nẵng	-10.5946
▁phổi	-10.5958
▁Quỳnh	-10.5959
qu	-10.5962
▁lam	-10.597
▁Pennsylvania	-10.5983
▁chào	-10.599
thi	-10.5993
▁Diễn	-10.5995
▁đói	-10.5997
▁Red	-10.6004
▁hằng	-10.6007
lar	-10.6016
▁xóa	-10.6016
▁Mark	-10.6017
▁Giá	-10.602
▁inch	-10.6028
▁Bất	-10.6035
▁Lệ	-10.604
yan	-10.6043
cer	-10.6045
▁1903	-10.6046
▁túi	-10.6053
▁Mary	-10.6062
he	-10.6067
▁Bur	-10.6068
▁thô	-10.6069
▁1898	-10.607
▁Tuần	-10.6071
vin	-10.6076
▁Mac	-10.6078
▁Bor	-10.6088
▁Neo	-10.6089
▁1952	-10.6091
▁túc	-10.6094
▁Bố	-10.6107
ice	-10.6117
ment	-10.6117
▁Hiệu	-10.6122
▁Angeles	-10.6125
▁Sen	-10.6128
▁Tín	-10.6151
▁Super	-10.6154
▁Santa	-10.6167
300	-10.6169
ac	-10.6181
ngày	-10.6189
▁Frank	-10.6193
▁Francisco	-10.6198
▁Har	-10.6198
37	-10.6203
▁eo	-10.6206
Trung	-10.6207
▁lão	-10.6207
▁Tùy	-10.6207
▁Star	-10.6208
▁Loại	-10.621
▁mi	-10.6222
▁Viết	-10.6224
▁Thăng	-10.6228
▁Pseudo	-10.6228
▁nhựa	-10.6242
▁Men	-10.6254
▁Tinh	-10.6255
▁Thịnh	-10.6263
▁Illinois	-10.6265
▁đứt	-10.6268
▁Hawaii	-10.627
—	-10.6305
▁1948	-10.6308
▁duyên	-10.6308
ros	-10.6311
▁Air	-10.6312
▁Tháo	-10.6317
▁lõi	-10.6326
ep	-10.6332
▁Trạch	-10.6347
▁Trân	-10.635
▁Don	-10.6355
▁pop	-10.6364
▁Ke	-10.637
▁Giai	-10.6373
▁mòn	-10.638
▁Tre	-10.6381
▁1897	-10.6393
Tr	-10.6405
ez	-10.6408
▁1907	-10.6426
▁mìn	-10.6428
▁béo	-10.6429
wan	-10.6435
▁DC	-10.6445
▁Thập	-10.6447
▁rạn	-10.6449
▁quát	-10.645
▁Quá	-10.6451
▁1949	-10.6462
▁Italia	-10.6471
▁King	-10.6471
ero	-10.6472
▁Kon	-10.6476
▁Top	-10.648
age	-10.6485
▁Chấp	-10.6492
▁hoại	-10.65
ena	-10.6517
▁Máy	-10.6523
▁Cử	-10.6525
▁Disney	-10.6538
▁UEFA	-10.6543
net	-10.6546
▁vời	-10.6547
▁Hổ	-10.6548
▁Halictidae	-10.6557
▁1927	-10.6557
▁1899	-10.6558
▁cúp	-10.6567
▁Baker	-10.6569
▁nút	-10.6574
CP	-10.6574
▁1917	-10.6575
gon	-10.6578
▁1928	-10.6583
47	-10.6585
ram	-10.659
ō	-10.659
▁mầm	-10.6593
field	-10.6598
▁Mor	-10.66
ski	-10.6604
Le	-10.6618
▁1904	-10.6622
▁manga	-10.6635
▁Tỷ	-10.6637
▁Er	-10.6637
▁42	-10.6642
▁gọn	-10.6648
▁Cụm	-10.6651
▁2001,	-10.6661
▁lạm	-10.6663
▁1902	-10.668
▁virus	-10.6688
▁1896	-10.6688
▁Kha	-10.669
▁hôi	-10.6694
▁Khmer	-10.6694
▁Armenia	-10.6694
▁lừa	-10.6697
▁rạp	-10.6699
ops	-10.67
▁Kiên	-10.671
▁Chiều	-10.6711
xi	-10.6712
Tipulidae	-10.6729
▁ft	-10.6731
▁thỏ	-10.6743
▁Ottoman	-10.6744
▁xích	-10.6754
▁hãm	-10.6755
est	-10.6764
▁mỡ	-10.6766
▁cúng	-10.6767
▁Seoul	-10.6773
▁trượt	-10.6775
▁Diego	-10.6778
ud	-10.6787
48	-10.6791
▁gương	-10.6792
▁Ch	-10.6798
▁CD	-10.68
60	-10.6802
▁Khê	-10.6803
ation	-10.6805
▁Lincoln	-10.6807
▁cối	-10.6807
▁chiêu	-10.6816
Al	-10.6817
kov	-10.6818
▁Megachilidae	-10.6825
mann	-10.6825
eng	-10.6826
▁VI	-10.6827
▁Khai	-10.683
▁bữa	-10.6832
▁múa	-10.6833
▁bốc	-10.6834
▁Florida	-10.6839
▁rồng	-10.6839
▁Tour	-10.6841
▁120	-10.6843
tri	-10.6846
▁mạo	-10.6851
▁kĩ	-10.6852
▁Kiều	-10.6854
ai	-10.6857
▁Olympic	-10.6884
▁TV	-10.6893
Sa	-10.6898
▁tản	-10.69
St	-10.6907
tro	-10.6916
▁tỏa	-10.6919
1,	-10.6919
▁x	-10.6919
▁rô	-10.6919
theo	-10.6923
▁with	-10.6927
▁Black	-10.6929
▁tê	-10.693
Th	-10.693
que	-10.6934
▁Mộ	-10.6937
▁sốt	-10.6938
▁lũy	-10.6945
▁chừng	-10.6946
all	-10.6947
▁vịt	-10.6949
▁nợ	-10.6959
▁Mãn	-10.6962
▁nộp	-10.6972
▁lũ	-10.6977
▁Latin	-10.6985
▁ro	-10.6986
▁Mười	-10.6994
▁Che	-10.6995
▁lầy	-10.6999
▁Australasia	-10.7006
▁Tăng	-10.701
mu	-10.7014
▁1975,	-10.7022
line	-10.7026
▁xóm	-10.7029
▁Oscar	-10.7039
▁Lã	-10.7046
▁Shin	-10.7056
Co	-10.7056
ste	-10.7061
▁nhi	-10.7069
▁Quách	-10.7071
▁Đốc	-10.7074
▁kiệt	-10.7082
zh	-10.7094
ona	-10.7095
▁Dòng	-10.7104
▁Gar	-10.7107
▁Jo	-10.7109
▁Thelypteri	-10.7115
▁hoãn	-10.7115
▁Her	-10.7118
▁Cỏ	-10.7119
▁bến	-10.7128
55	-10.7129
▁Tả	-10.7136
▁Kar	-10.7141
▁mù	-10.7145
▁bội	-10.7151
im	-10.7154
▁bàng	-10.7154
▁khẩn	-10.7155
▁Ber	-10.7164
▁Serie	-10.7164
▁1915	-10.717
ab	-10.7179
▁1918	-10.7181
▁Serbia	-10.7184
▁One	-10.7192
▁vải	-10.7194
yu	-10.7198
▁giấu	-10.7202
▁cậy	-10.7207
▁Mc	-10.7207
▁tha	-10.7208
cia	-10.7209
+	-10.7211
▁2002,	-10.7216
▁dũng	-10.7217
▁Điểm	-10.7218
ụ	-10.7219
▁mâu	-10.7238
iensis	-10.7242
▁Mạnh	-10.7243
▁móng	-10.7243
▁Bulgaria	-10.7245
▁xướng	-10.7245
▁1894	-10.7257
▁1919	-10.7258
tre	-10.7258
▁dính	-10.7261
▁ngẫu	-10.7263
▁Bởi	-10.7271
▁dắt	-10.7271
▁triệt	-10.7276
▁đâm	-10.7279
▁Diệp	-10.7279
▁1901	-10.728
tion	-10.728
▁Kỷ	-10.7283
▁Bạc	-10.7287
▁Thất	-10.7287
▁39	-10.7303
▁Ohio	-10.7305
uk	-10.7306
Liên	-10.7308
▁Quỹ	-10.7323
▁Căn	-10.7324
âm	-10.7326
▁khuyết	-10.733
trước	-10.7333
ré	-10.7339
ev	-10.7344
nus	-10.7352
▁bông	-10.736
ini	-10.7363
▁We	-10.7365
▁Town	-10.7368
pro	-10.7369
Aquitaine	-10.7372
ye	-10.7381
▁nhiếp	-10.7406
▁48	-10.7414
▁Nu	-10.7415
qua	-10.7416
▁chổi	-10.7427
▁Măng	-10.7434
▁Vòng	-10.7441
De	-10.7443
▁phiến	-10.7457
▁ôn	-10.7462
▁Google	-10.7464
34	-10.7465
▁cuồng	-10.7472
▁Cấp	-10.7473
▁khía	-10.7476
▁huống	-10.7493
▁Bảng	-10.7493
▁phấn	-10.7501
▁Nobel	-10.7501
▁Virginia	-10.7509
▁nhạy	-10.7511
▁Tôi	-10.7514
2%	-10.7525
▁Phùng	-10.7525
ss	-10.7529
▁hưng	-10.7544
▁thở	-10.7546
▁War	-10.7548
▁bù	-10.7553
▁Tối	-10.7553
▁sọc	-10.7556
80	-10.7556
07	-10.757
An	-10.7576
▁đắp	-10.758
▁mờ	-10.7581
▁Thay	-10.7584
Con	-10.7587
▁mì	-10.7588
▁Túc	-10.7593
▁Hoằng	-10.7599
▁Trấn	-10.7601
▁sói	-10.7604
und	-10.761
▁Đĩa	-10.761
▁Han	-10.7612
ford	-10.7618
▁ho	-10.7622
▁Records	-10.7628
▁radar	-10.7628
Re	-10.763
08	-10.763
▁mốc	-10.7638
▁Afghanistan	-10.7639
ite	-10.7647
▁thơm	-10.7649
2008	-10.7651
▁tiệc	-10.7652
▁chốt	-10.7652
ans	-10.7658
▁Bến	-10.766
▁tím	-10.766
▁b	-10.7662
▁Minnesota	-10.7671
90	-10.7678
bar	-10.7678
ide	-10.768
ale	-10.7682
▁luân	-10.7682
▁Elizabeth	-10.7683
▁xá	-10.7684
▁May	-10.7685
▁1889	-10.7685
pha	-10.7693
ất	-10.7693
400	-10.7698
▁1980,	-10.7714
▁Dũng	-10.7714
▁hối	-10.7724
▁Il	-10.773
▁2019,	-10.7732
▁tùng	-10.7733
▁rào	-10.7748
mia	-10.7762
len	-10.7762
▁Khải	-10.7764
9%	-10.7765
▁Làng	-10.7766
▁ướt	-10.7767
▁Victoria	-10.7771
od	-10.7775
▁Mậu	-10.7782
ư	-10.7789
del	-10.7793
▁Eugène	-10.7795
▁Mer	-10.7796
▁1921	-10.7806
▁Trí	-10.7811
lô	-10.7811
▁Hypn	-10.7811
▁bớt	-10.782
▁Kara	-10.7822
▁ngon	-10.7823
▁Col	-10.7839
▁túy	-10.7839
▁ngừa	-10.7841
▁Ali	-10.7842
▁đắc	-10.7844
▁khớp	-10.7847
▁lô	-10.7852
▁Vàng	-10.7857
zu	-10.7859
tic	-10.7863
▁dạ	-10.7878
▁Sáng	-10.7884
dal	-10.7889
52	-10.7892
▁mặn	-10.7895
những	-10.7897
▁lườn	-10.7899
31	-10.79
well	-10.7904
▁Giả	-10.7907
▁Sri	-10.7909
▁Mua	-10.7912
▁viếng	-10.7924
▁Th	-10.7935
▁Wi	-10.7939
▁Xá	-10.794
▁Lạt	-10.7944
▁nghịch	-10.7947
▁Micro	-10.795
▁Tiết	-10.7952
▁nhấm	-10.796
▁khỉ	-10.796
▁Rio	-10.7962
▁quế	-10.7963
09	-10.7964
xem	-10.7969
▁ngón	-10.7973
▁hảo	-10.798
32	-10.7982
▁Wilhelm	-10.799
ll	-10.7991
▁Rôma	-10.8003
ap	-10.801
ier	-10.801
ene	-10.8012
▁nghiêng	-10.8013
▁trăng	-10.8019
▁Quán	-10.8032
▁miếu	-10.8035
▁Gần	-10.8041
▁Madrid	-10.8046
▁Stalin	-10.805
▁Ana	-10.8052
▁ổ	-10.8058
▁ngộ	-10.8062
▁Đen	-10.8064
Ro	-10.807
▁gấu	-10.8074
▁Ji	-10.8077
ú	-10.8078
▁Hỏa	-10.8079
Ta	-10.8083
王	-10.8085
▁ngai	-10.8088
bin	-10.8095
▁im	-10.8098
▁tảo	-10.8099
▁Shi	-10.81
ach	-10.8101
daceae	-10.8102
▁trừng	-10.8114
▁01	-10.8121
▁trật	-10.8127
▁rác	-10.8138
▁Müll	-10.8148
Mo	-10.8156
▁Chùa	-10.8158
▁Nói	-10.816
▁đạp	-10.8161
▁giật	-10.8161
▁1890	-10.8162
ish	-10.8162
▁Lần	-10.8173
▁rẽ	-10.8175
▁duệ	-10.818
▁Mạng	-10.8184
▁cài	-10.8187
▁Phường	-10.8189
▁Milan	-10.8198
ray	-10.8199
▁is	-10.82
▁North	-10.8208
▁guitar	-10.8212
▁Chợ	-10.8219
64	-10.8224
▁Alexander	-10.8224
▁vân	-10.823
1%	-10.8231
fe	-10.8233
è	-10.8235
▁Football	-10.8236
rat	-10.8238
ani	-10.8241
▁hố	-10.8241
yi	-10.8251
ins	-10.8264
▁1878	-10.8264
▁móc	-10.8267
▁ngụ	-10.8274
lus	-10.828
▁Game	-10.8281
7%	-10.8282
▁Costa	-10.8293
với	-10.8294
▁lùi	-10.8297
▁DVD	-10.8301
▁50%	-10.8302
Na	-10.8305
pin	-10.8314
dong	-10.8315
▁Thẩm	-10.832
▁Bát	-10.8322
▁Chelsea	-10.8323
2010	-10.8326
▁Trình	-10.8336
▁Cal	-10.8342
▁Pottiaceae	-10.8343
ā	-10.8348
ns	-10.8349
600	-10.835
▁1000	-10.8353
▁Real	-10.836
In	-10.8371
▁trà	-10.8371
▁55	-10.8373
4%	-10.8374
38	-10.8374
▁Mường	-10.8376
mel	-10.8385
▁Cai	-10.8387
▁Binh	-10.8392
ifera	-10.8392
ft	-10.8402
Li	-10.8403
▁Giáp	-10.8403
▁Đạt	-10.8404
bel	-10.8405
Những	-10.8412
▁poly	-10.8413
▁On	-10.8414
▁1970,	-10.8429
dra	-10.8433
▁chánh	-10.8434
▁gạch	-10.8436
nis	-10.8442
iz	-10.8446
hu	-10.8446
tsu	-10.8449
8%	-10.8455
▁Cockerell	-10.8459
▁lưỡi	-10.8459
Ch	-10.8461
▁—	-10.8462
▁chém	-10.8464
cal	-10.847
illa	-10.847
ure	-10.8476
05	-10.8484
▁bát	-10.8484
▁Va	-10.8487
▁dám	-10.8494
▁ngọc	-10.8497
los	-10.8499
▁rửa	-10.8499
ón	-10.8501
▁chuyền	-10.8502
▁vạch	-10.8512
▁Thiền	-10.8526
▁75	-10.8527
nica	-10.8528
▁Thích	-10.8529
2007	-10.8532
là	-10.8532
ira	-10.8534
▁Bay	-10.8535
▁Congo	-10.8545
▁vượng	-10.8559
▁Sar	-10.856
▁1960,	-10.8563
pus	-10.8563
▁chướng	-10.8584
▁Euro	-10.8586
▁250	-10.8586
▁Hook	-10.8588
ff	-10.8589
▁Kiểm	-10.859
▁khói	-10.8594
▁Rock	-10.8598
▁Columbia	-10.8599
▁vay	-10.8602
▁Bác	-10.8604
▁Albert	-10.8605
▁thoảng	-10.8609
Müll	-10.8615
sii	-10.8616
▁Mô	-10.862
▁Algérie	-10.8623
▁Núi	-10.8634
▁Bảy	-10.8639
▁1885	-10.864
▁rải	-10.8643
bal	-10.8647
▁Bốn	-10.8661
▁Dakota	-10.8661
ä	-10.8663
▁Iowa	-10.8665
thường	-10.8665
▁Ak	-10.8667
▁hi	-10.8668
▁Mal	-10.8693
▁Càn	-10.8697
▁Ci	-10.8698
▁bách	-10.8699
▁Bách	-10.8718
ada	-10.8724
▁lứa	-10.875
▁Pra	-10.8757
▁TP	-10.8761
▁feet	-10.8763
tica	-10.8763
▁Lĩnh	-10.8766
▁Benth	-10.8769
wood	-10.877
ix	-10.8778
▁Hạng	-10.8785
▁Pha	-10.8786
▁Fe	-10.8794
ther	-10.8798
▁41	-10.8798
▁Vật	-10.8817
INE	-10.882
▁Nai	-10.8822
bus	-10.8828
▁1859	-10.8833
▁ấu	-10.8842
▁Bel	-10.8847
▁vẹn	-10.8847
3,	-10.8851
▁Tưởng	-10.8856
▁Nouvelle	-10.8862
▁Kenya	-10.8865
▁trôi	-10.8865
▁Chuẩn	-10.8865
▁giáng	-10.8867
tháng	-10.8867
_	-10.8871
▁44	-10.8871
▁táo	-10.8879
▁am	-10.8879
bit	-10.888
▁43	-10.8883
oi	-10.8884
▁me	-10.8886
dar	-10.8899
Di	-10.8901
▁Giữa	-10.8901
uri	-10.8906
800	-10.8909
▁Mau	-10.8911
▁bó	-10.8913
▁đấy	-10.8913
▁Ol	-10.8914
▁Mẫu	-10.8923
▁Panama	-10.8943
▁cẩn	-10.8947
▁Monte	-10.8953
Ka	-10.8955
▁Lá	-10.8958
▁Castile	-10.8959
06	-10.8961
eta	-10.8973
▁đà	-10.8975
▁li	-10.8982
▁Bal	-10.8986
ela	-10.8991
ả	-10.8995
ova	-10.9012
ò	-10.9015
▁UNESCO	-10.902
2014	-10.9021
tur	-10.9023
▁sút	-10.9028
▁Java	-10.9035
▁châm	-10.9036
▁nảy	-10.9042
ase	-10.905
gia	-10.9051
▁Sun	-10.9055
▁quỷ	-10.9057
ele	-10.9062
inus	-10.9063
Nam	-10.9064
▁Harry	-10.9065
▁Ce	-10.9073
▁Huỳnh	-10.9074
▁Nhơn	-10.9079
bia	-10.9082
▁Fu	-10.9084
▁đeo	-10.9085
▁nhọn	-10.9089
▁tị	-10.9089
▁Diệm	-10.9097
▁Julius	-10.9097
burg	-10.9099
▁mũ	-10.9103
thời	-10.9104
bra	-10.911
▁giãn	-10.9116
▁Sản	-10.9123
▁xen	-10.9125
▁neo	-10.9127
▁Tuyến	-10.9129
met	-10.9131
▁Đơn	-10.914
▁ion	-10.9143
▁nhiễu	-10.9147
▁1882	-10.9149
oma	-10.9152
▁Chất	-10.9154
▁Hall	-10.9155
ant	-10.9156
▁ngưng	-10.9165
▁muộn	-10.9166
š	-10.9174
DC	-10.9177
▁Hãn	-10.9179
▁Hoà	-10.9181
Araceae	-10.9181
▁Khối	-10.9192
ato	-10.9199
▁Đồ	-10.9207
▁1944,	-10.9211
▁1893	-10.9212
▁Hiền	-10.922
▁Macedonia	-10.9225
▁Sta	-10.9227
▁ơn	-10.9231
▁Jan	-10.9253
ı	-10.9263
▁hãy	-10.9263
▁Nguồn	-10.9268
▁Kan	-10.9269
▁Au	-10.9271
▁Del	-10.9273
▁Fi	-10.9277
▁heo	-10.9278
▁Mont	-10.9279
▁Xiêm	-10.9283
▁sôi	-10.9284
Franche	-10.9287
2013	-10.929
▁Khả	-10.9295
▁All	-10.9297
mét	-10.9298
ric	-10.9312
▁nho	-10.9313
icola	-10.9316
▁quên	-10.9319
way	-10.9321
▁Champions	-10.9323
▁Ung	-10.9324
rea	-10.9325
▁Đề	-10.9333
▁nén	-10.9336
sar	-10.9338
ity	-10.9338
TV	-10.9339
▁lụt	-10.9342
▁hãi	-10.9342
▁Ráy	-10.9349
▁Lâu	-10.9365
▁thâm	-10.9368
ves	-10.9377
ney	-10.9385
▁47	-10.9387
46	-10.9392
ota	-10.9398
Comté	-10.9399
▁Khương	-10.9403
sự	-10.9403
ö	-10.9405
▁chua	-10.9407
▁Phu	-10.9417
az	-10.9417
ary	-10.9418
▁trội	-10.9419
bor	-10.9423
▁hoạn	-10.9424
▁46	-10.9425
▁tấu	-10.9428
hai	-10.9433
chia	-10.9436
▁mắn	-10.9439
phi	-10.944
▁1875	-10.9447
▁series	-10.9447
▁Nhi	-10.9449
▁Độc	-10.945
▁Premier	-10.9454
▁Kh	-10.9456
▁Hal	-10.9456
▁Division	-10.9457
▁lùn	-10.9457
omyia	-10.946
▁lữ	-10.946
▁thuỷ	-10.9461
▁vắng	-10.9464
▁Lớn	-10.9464
tch	-10.9465
04	-10.9476
▁Uganda	-10.9479
gel	-10.9481
▁Voivodeship	-10.9483
osus	-10.9496
▁cười	-10.9496
▁FIFA	-10.9498
▁Os	-10.9518
86	-10.9518
▁Loire	-10.9519
▁International	-10.952
▁kép	-10.9525
▁600	-10.9529
▁xoáy	-10.9532
▁Phố	-10.9534
ì	-10.9537
▁cóc	-10.9538
iella	-10.954
orum	-10.9552
▁Cape	-10.9552
▁gãy	-10.9555
▁Dan	-10.9556
▁giặc	-10.9557
▁Ter	-10.9563
▁quãng	-10.957
sti	-10.9571
▁Đã	-10.9572
▁Đôi	-10.9572
▁Cư	-10.9574
▁Ánh	-10.9577
▁gũi	-10.9589
▁khiêu	-10.9593
▁xấp	-10.9599
sin	-10.9604
tar	-10.9605
39	-10.9611
▁Doanh	-10.9614
▁Tor	-10.9616
urus	-10.9624
▁Trụ	-10.9633
ipennis	-10.9635
▁tráng	-10.9635
▁Hauts	-10.9652
▁Tới	-10.9658
▁micro	-10.9662
▁Araneidae	-10.9665
]],	-10.9665
▁vĩnh	-10.9665
▁khe	-10.9678
▁Xích	-10.9679
▁khử	-10.9681
▁1886	-10.9685
▁1880	-10.9688
▁MiG	-10.9695
▁lặng	-10.9697
▁1998,	-10.9697
▁pseudo	-10.9699
lı	-10.9703
ü	-10.9703
▁52	-10.9706
2011	-10.9708
▁mộc	-10.9708
Rob	-10.971
3%	-10.9711
▁Daniel	-10.9713
▁Cer	-10.9713
▁Trò	-10.9715
var	-10.9718
▁Hạt	-10.9724
▁Cố	-10.9724
▁1879	-10.9726
▁DNA	-10.9727
▁Bourgogne	-10.9727
stra	-10.9728
▁hàn	-10.9728
▁nhũng	-10.9731
Hoa	-10.9733
▁rễ	-10.9734
lam	-10.9735
▁Ze	-10.9738
▁Walter	-10.974
nd	-10.9741
and	-10.9743
▁1942,	-10.9746
▁Hãng	-10.975
▁Tích	-10.9752
▁from	-10.9754
tta	-10.976
▁Big	-10.9764
can	-10.9767
▁tôm	-10.9771
▁USS	-10.9772
Nhật	-10.9777
▁đệm	-10.9777
bro	-10.978
42	-10.9786
▁lộn	-10.9787
▁sét	-10.9794
zer	-10.9817
▁bệ	-10.9822
▁Sol	-10.9824
▁ngô	-10.9834
át	-10.9843
▁Chế	-10.9849
lic	-10.9857
▁pa	-10.9861
Ca	-10.9865
▁rẻ	-10.987
▁Khổng	-10.9873
No	-10.988
▁say	-10.988
▁nhậm	-10.9897
▁Rick	-10.9898
▁bùn	-10.9901
▁Hill	-10.9902
▁Min	-10.9902
▁Đền	-10.9903
out	-10.9907
▁Rose	-10.9911
36	-10.9912
▁Occitanie	-10.9917
▁Jack	-10.992
port	-10.9922
▁Kansas	-10.9924
▁chẩn	-10.9924
tel	-10.9924
ala	-10.9928
▁tắm	-10.993
ow	-10.9936
▁cuộn	-10.9937
▁bưu	-10.9937
▁xoắn	-10.994
▁Brown	-10.9944
▁Andren	-10.9947
57	-10.9951
▁khánh	-10.9954
▁ngạc	-10.9958
ator	-10.9959
▁1871	-10.9969
bre	-10.997
hara	-10.9981
▁bám	-10.9984
▁1888	-10.9988
▁1869	-10.9993
onia	-10.9997
2016	-11.0002
▁Ký	-11.0004
03	-11.0004
▁lấn	-11.0008
din	-11.0011
ş	-11.0016
▁tre	-11.0017
▁Tar	-11.0019
her	-11.0021
▁Ab	-11.0022
▁ngòi	-11.0025
nk	-11.0033
ex	-11.0034
▁ngục	-11.0042
▁FA	-11.0044
▁Schlt	-11.0044
▁bổng	-11.0049
▁as	-11.0052
▁tựu	-11.006
▁Tra	-11.0063
▁Năng	-11.0064
rum	-11.0066
Ra	-11.0075
▁cắn	-11.0083
▁đày	-11.0084
▁xít	-11.0091
ốc	-11.0098
▁Kuntze	-11.0102
ç	-11.0106
▁Je	-11.0113
70	-11.0116
▁buồng	-11.0116
mat	-11.0116
▁vôi	-11.0117
▁Trì	-11.012
75	-11.0123
▁Pháo	-11.0125
▁Dar	-11.0126
▁Show	-11.013
pp	-11.0142
▁1860	-11.0148
▁Liverpool	-11.015
ora	-11.0159
▁Khí	-11.0161
▁thổi	-11.0164
▁Normandie	-11.0165
ew	-11.0167
▁Rắn	-11.0167
ett	-11.0173
▁Arthur	-11.0176
▁Pomerania	-11.018
▁Sir	-11.0187
▁Ph	-11.0189
▁Dơi	-11.0194
▁Chó	-11.0199
▁gốm	-11.02
▁chòm	-11.02
▁58	-11.0204
▁Ex	-11.0205
▁Thức	-11.0207
▁electron	-11.0212
▁Uỷ	-11.0218
▁Com	-11.022
Se	-11.0221
α	-11.0227
▁miếng	-11.0228
▁hạch	-11.023
▁Chăm	-11.0232
▁Bre	-11.0232
rie	-11.0233
▁51	-11.0234
raion	-11.0236
▁Hộ	-11.0238
▁Phụng	-11.0241
▁thùng	-11.0243
▁cưỡng	-11.0245
ăng	-11.0246
▁19,	-11.0247
▁nát	-11.0249
▁trộm	-11.0252
Thể	-11.0259
▁Meloidae	-11.0259
▁bắp	-11.0269
▁Anna	-11.0272
▁1870	-11.0281
elia	-11.0284
mes	-11.0289
▁Zo	-11.0292
_2	-11.0304
▁Tầm	-11.0309
ska	-11.0313
▁Kiểu	-11.0315
car	-11.0319
las	-11.032
▁dệt	-11.0322
▁khóc	-11.0323
▁Ger	-11.0325
33	-11.0327
▁Lanka	-11.0332
mont	-11.0333
▁pin	-11.0341
▁Nơi	-11.0345
▁Đổng	-11.0347
▁vươn	-11.0347
▁Kháng	-11.0347
▁cacbon	-11.0347
tho	-11.0348
eli	-11.0355
▁be	-11.0355
▁Port	-11.0357
▁Lại	-11.0357
▁Liệt	-11.0368
▁São	-11.037
▁tuệ	-11.0372
▁Vĩ	-11.0374
▁Awards	-11.0378
ting	-11.038
▁khoán	-11.0384
▁ngột	-11.0388
kar	-11.0389
▁56	-11.0392
▁rùa	-11.0395
gh	-11.0406
▁Cường	-11.0408
Bo	-11.0409
▁hái	-11.0414
▁Apple	-11.0415
▁ghét	-11.0417
▁Pas	-11.042
▁Night	-11.042
▁1877	-11.0422
▁1943,	-11.0431
и	-11.0437
tt	-11.0444
▁Juan	-11.0444
▁đụng	-11.0445
ub	-11.0448
Cl	-11.0448
▁Sáu	-11.0448
▁phụng	-11.045
▁thắt	-11.0456
▁Ve	-11.046
AN	-11.0461
▁Croatia	-11.0463
yn	-11.0464
▁1887	-11.0467
▁ớt	-11.0471
58	-11.0472
▁49	-11.0473
Ha	-11.0474
▁thụy	-11.0477
ết	-11.0477
▁64	-11.0488
▁tú	-11.0491
▁1950,	-11.05
▁Quế	-11.0502
▁At	-11.0505
cu	-11.0508
▁albi	-11.0508
▁củ	-11.0509
AT	-11.0515
aris	-11.0517
▁1873	-11.0521
▁Sùng	-11.0522
▁cốc	-11.0526
▁thiền	-11.0531
▁Tan	-11.0533
pra	-11.0535
ik	-11.0537
▁đắm	-11.0541
▁lây	-11.0541
tal	-11.0544
eb	-11.0556
▁1838	-11.0564
pu	-11.0566
▁Tho	-11.0591
▁1892	-11.0593
▁YouTube	-11.0595
▁Vận	-11.0603
▁hydro	-11.0604
▁fan	-11.0607
chu	-11.0608
▁Tiệp	-11.0609
▁thự	-11.061
yama	-11.0612
▁Ước	-11.0614
col	-11.062
▁León	-11.0621
▁Pomeranian	-11.0623
▁Khan	-11.0624
▁Grammy	-11.0625
▁1876	-11.0625
Lo	-11.0628
▁Taylor	-11.0629
▁Ái	-11.063
▁Kiệt	-11.0631
tidae	-11.0635
65	-11.0642
▁Pteridaceae	-11.0645
▁Phượng	-11.0649
▁Mad	-11.0655
▁Miến	-11.0656
▁nướng	-11.0656
01	-11.0658
▁Villa	-11.0659
▁XIX	-11.0664
▁Sóc	-11.0666
▁hiếp	-11.0667
2009	-11.0669
43	-11.0673
▁Mẫn	-11.0675
▁mg	-11.0676
▁quật	-11.0678
▁GDP	-11.068
ras	-11.0684
62	-11.0692
5%	-11.0695
▁Tanzania	-11.07
▁cưỡi	-11.07
▁Uyên	-11.07
ari	-11.0706
▁dại	-11.0714
▁Club	-11.0715
▁ván	-11.072
lla	-11.0721
▁MTV	-11.0722
▁1997,	-11.0725
▁hụt	-11.0725
▁kilômét	-11.0725
cis	-11.0726
▁hiếu	-11.0727
số	-11.0732
bach	-11.0733
▁She	-11.0741
▁Dụ	-11.0742
nan	-11.0745
ding	-11.0748
ifolium	-11.0753
▁đãi	-11.0756
▁Times	-11.0756
▁Bra	-11.0757
▁1996,	-11.0766
ác	-11.0771
▁mồ	-11.0772
▁Bàn	-11.0775
▁54	-11.0776
▁Bromeliaceae	-11.0776
ami	-11.078
▁Far	-11.078
▁1866	-11.0786
ichi	-11.0787
uma	-11.0787
ù	-11.0791
hel	-11.0792
ace	-11.0797
▁1883	-11.0799
mis	-11.0802
▁Ad	-11.0803
▁Thác	-11.0805
▁Christian	-11.0807
▁Napoléon	-11.0809
▁Miền	-11.0825
▁vách	-11.083
▁nốt	-11.0836
▁he	-11.0843
Pa	-11.0843
700	-11.0847
▁opera	-11.0848
mos	-11.0849
ền	-11.0859
▁Hoạt	-11.0865
▁Poly	-11.0865
▁Chiêm	-11.0874
▁Cậu	-11.0878
if	-11.0878
ret	-11.0887
▁Mel	-11.089
▁800	-11.0892
02	-11.0893
oli	-11.0898
Anh	-11.0899
▁natri	-11.0901
▁Lạng	-11.0909
▁XX	-11.0914
▁Sin	-11.0914
▁Boy	-11.0927
▁vội	-11.0935
row	-11.0936
▁53	-11.0938
95	-11.0942
▁1881	-11.0943
▁Bắt	-11.0945
▁nắng	-11.095
▁Ur	-11.0951
▁Young	-11.0958
fo	-11.096
▁Bou	-11.0962
▁Gor	-11.0966
Các	-11.0973
▁tour	-11.0978
▁Ôn	-11.098
▁Michigan	-11.098
▁Bái	-11.098
▁Nhiệt	-11.098
▁1991,	-11.098
▁nhẫn	-11.0984
rd	-11.0986
▁Ken	-11.0994
▁nhiêu	-11.0999
▁HMS	-11.1001
ianus	-11.1003
1998	-11.1005
▁tụng	-11.1008
▁1884	-11.1008
▁bìa	-11.1011
▁Green	-11.1019
▁Epi	-11.102
Or	-11.102
▁Ngựa	-11.1026
85	-11.1045
cũng	-11.1048
ori	-11.105
▁khoang	-11.1051
▁1,5	-11.1052
▁White	-11.1053
ib	-11.1054
▁Ren	-11.1059
▁vòm	-11.106
▁Vo	-11.106
▁Liễu	-11.1063
nu	-11.1064
sy	-11.1065
bert	-11.1067
▁Media	-11.1072
▁quà	-11.1072
▁rủi	-11.1076
kai	-11.1081
▁Giáng	-11.1082
▁1861	-11.1083
2000	-11.1084
6%	-11.1089
▁Wisconsin	-11.1089
▁Hằng	-11.109
art	-11.1096
CA	-11.1099
▁Ed	-11.11
ble	-11.1106
▁Ghana	-11.1109
▁1874	-11.1113
▁1864	-11.1113
khi	-11.1116
▁VII	-11.1122
eu	-11.1128
▁Cuốn	-11.1128
▁Wall	-11.1134
chủ	-11.1135
▁Vu	-11.1138
rit	-11.1147
▁Ac	-11.1147
ipes	-11.115
andra	-11.1156
Một	-11.1156
cker	-11.116
rong	-11.1166
99	-11.1172
1999	-11.1174
low	-11.1177
▁Carolina	-11.1181
▁Màu	-11.1184
▁1994,	-11.1185
stan	-11.1186
72	-11.1189
▁des	-11.1201
61	-11.1203
▁1863	-11.1208
ğ	-11.1209
▁Trực	-11.1211
New	-11.1214
▁đính	-11.1218
▁1941,	-11.1221
stro	-11.1228
▁Szczecin	-11.1229
2006	-11.1229
▁Hung	-11.1232
▁bo	-11.1232
Ar	-11.1234
▁Cáp	-11.1238
41	-11.1239
▁Camp	-11.1242
ạ	-11.1244
▁Madagascar	-11.1245
▁Diệu	-11.1254
dis	-11.1254
ối	-11.1259
ến	-11.1259
а	-11.126
▁Hay	-11.1261
Vi	-11.1263
▁Max	-11.1264
▁rìa	-11.1264
▁For	-11.1266
▁Côn	-11.1272
▁Kra	-11.1281
ă	-11.1285
▁Bell	-11.1289
end	-11.1289
Rhône	-11.1291
tte	-11.1293
let	-11.1304
cher	-11.1305
Arg	-11.1307
51	-11.1314
▁was	-11.1314
▁giấc	-11.1315
▁khoan	-11.1318
▁lường	-11.1327
▁BBC	-11.1328
gue	-11.1331
▁Johnson	-11.1349
▁1867	-11.1354
93	-11.1361
▁cơm	-11.1368
ich	-11.1372
84	-11.1374
▁piano	-11.1377
idium	-11.1383
▁bóc	-11.1388
▁nhường	-11.1388
2015	-11.1399
▁hận	-11.14
▁Ty	-11.1402
▁Cro	-11.1406
▁Pre	-11.1413
▁Tám	-11.1414
▁Merr	-11.1419
▁Pri	-11.142
gra	-11.142
▁tể	-11.1421
▁kiệm	-11.1423
antha	-11.1424
▁Model	-11.1424
▁Var	-11.1426
▁bầy	-11.1427
▁57	-11.143
▁Đắk	-11.1431
▁xà	-11.1432
nor	-11.1434
jin	-11.1437
▁Cánh	-11.1442
ệ	-11.1443
54	-11.1443
2004	-11.1445
53	-11.1448
▁Vai	-11.1448
▁Ngược	-11.1455
▁Missouri	-11.1467
▁1850	-11.147
▁dâu	-11.1471
▁Đàm	-11.148
▁Khâm	-11.1482
▁Ching	-11.1485
▁Ludwig	-11.1486
▁Bích	-11.1489
▁American	-11.1489
giờ	-11.149
dor	-11.1492
▁Yang	-11.1501
nie	-11.1502
▁cáp	-11.1503
▁Xe	-11.1509
▁Live	-11.151
win	-11.1514
▁gối	-11.1514
wer	-11.1524
▁Hollywood	-11.1526
rina	-11.1529
log	-11.1529
pes	-11.153
▁Chim	-11.1531
odon	-11.1531
ianum	-11.1533
dai	-11.1534
▁Airlines	-11.1541
▁Khởi	-11.1549
▁Khẩu	-11.1553
ern	-11.1557
▁Sea	-11.1559
▁Thung	-11.1561
▁18,	-11.1567
▁Thêm	-11.157
lum	-11.1575
Ho	-11.1577
ý	-11.1578
▁Boston	-11.1578
tương	-11.1579
▁Fo	-11.1582
▁Palestine	-11.1585
▁Inter	-11.1587
thuộc	-11.1599
▁Diện	-11.1602
▁110	-11.1604
▁Ye	-11.1611
El	-11.1612
êm	-11.1613
▁Haute	-11.1614
▁Bờ	-11.1617
▁lấp	-11.1621
anum	-11.1624
▁Arecaceae	-11.1629
▁1868	-11.1629
mb	-11.1634
▁Nhị	-11.1636
▁Henri	-11.164
▁luồng	-11.1649
▁Chart	-11.1653
▁trùm	-11.1653
▁Win	-11.1655
▁Tr	-11.1656
▁Jordan	-11.1657
▁miện	-11.1658
▁Tạ	-11.1658
▁East	-11.1659
▁Riêng	-11.1665
tambon	-11.167
▁solo	-11.1676
▁cắp	-11.1677
pal	-11.1679
▁Pat	-11.1683
zen	-11.1684
ges	-11.1685
sal	-11.1687
▁Colletidae	-11.1689
▁gác	-11.1695
▁cắm	-11.1697
▁Hassan	-11.1697
ag	-11.1699
_1	-11.1699
Mi	-11.1699
ec	-11.1702
▁Son	-11.1704
▁trọn	-11.1704
▁Astragalus	-11.1717
ido	-11.1719
chy	-11.172
lie	-11.1726
ef	-11.1727
▁Okinawa	-11.1729
▁Ứng	-11.1729
▁SS	-11.1731
▁Ser	-11.1733
▁cua	-11.1733
pho	-11.1736
▁Vol	-11.1739
Don	-11.1743
▁Luer	-11.1745
ioides	-11.175
gun	-11.175
▁mập	-11.1751
▁bếp	-11.1751
MS	-11.1756
▁1946,	-11.1764
olo	-11.1767
▁Stone	-11.1773
gal	-11.1774
▁Xưởng	-11.1778
▁Puerto	-11.1782
Tiếng	-11.1786
ides	-11.1787
▁|	-11.1797
▁1995,	-11.1798
▁khuynh	-11.1802
▁Bas	-11.181
osum	-11.181
▁sắm	-11.181
QĐ	-11.1813
▁tiễn	-11.1814
ple	-11.1816
Val	-11.182
vel	-11.1825
▁Hiển	-11.1831
▁Rica	-11.1834
▁130	-11.1838
▁Biểu	-11.1839
▁Ste	-11.184
▁lắm	-11.1843
▁chuộng	-11.1851
ay	-11.1852
▁lặn	-11.1856
▁Mun	-11.1856
▁bể	-11.1861
▁Bill	-11.1869
▁Tim	-11.1869
▁Ara	-11.187
▁Xuất	-11.1871
▁Les	-11.1875
▁1858	-11.188
▁CLB	-11.1884
▁Gen	-11.1884
sei	-11.1892
▁Fox	-11.1903
pt	-11.1911
iya	-11.1912
▁kiềm	-11.1916
▁ngài	-11.1917
▁thiêng	-11.1918
▁Ap	-11.1918
bon	-11.192
sus	-11.1931
96	-11.1933
▁Thuốc	-11.1933
79	-11.1937
▁spin	-11.1939
▁1753	-11.1945
wo	-11.1948
▁sọ	-11.1949
▁•	-11.1949
sel	-11.1952
▁Scott	-11.1956
▁giày	-11.196
chen	-11.1968
mas	-11.1969
Hà	-11.1969
ring	-11.1969
▁Hong	-11.1971
▁tơ	-11.1971
▁tr	-11.1977
AM	-11.1978
▁Pradesh	-11.1978
uga	-11.1981
▁1857	-11.1983
▁Tha	-11.1985
▁Dược	-11.1987
▁1865	-11.1988
icollis	-11.1989
▁Lejeuneaceae	-11.199
▁Nhìn	-11.1995
▁Kho	-11.1996
▁Gà	-11.1997
war	-11.1997
▁Lộ	-11.2
▁10%	-11.2004
▁Gặ	-11.2004
ight	-11.2004
ali	-11.2006
via	-11.2007
▁Arkansas	-11.201
ome	-11.2018
lip	-11.2019
zy	-11.2025
▁Arsenal	-11.2032
▁1862	-11.2034
▁chì	-11.2037
mit	-11.2038
Chi	-11.2038
▁tẩy	-11.204
non	-11.2045
▁Ran	-11.2046
▁rụng	-11.2048
King	-11.2048
▁Nghiệp	-11.2053
▁Candèze	-11.2057
try	-11.2057
uff	-11.2058
lit	-11.2059
ref	-11.206
▁hiền	-11.2061
aea	-11.2063
af	-11.2064
thành	-11.2065
▁Bryaceae	-11.2065
phe	-11.2067
▁Thúc	-11.207
hor	-11.2071
▁đành	-11.2075
▁1954,	-11.2085
▁enzyme	-11.2086
▁longi	-11.2091
xa	-11.2091
▁1854	-11.2092
▁Albania	-11.2095
cor	-11.2098
▁Mordellidae	-11.2098
2005	-11.2101
▁Cốc	-11.2114
form	-11.2114
▁Khác	-11.2117
▁Mồ	-11.2118
▁Wilson	-11.2118
▁Theridiidae	-11.2119
pop	-11.2121
▁1836	-11.2123
▁Tịnh	-11.2124
▁canxi	-11.2127
Du	-11.2131
chỉ	-11.2134
lat	-11.2134
▁Tượng	-11.2137
▁72	-11.2141
▁Doãn	-11.2154
ulus	-11.2154
more	-11.2155
nov	-11.2158
▁Síp	-11.217
▁by	-11.2171
▁Qu	-11.2173
▁Pin	-11.2176
▁chéo	-11.2187
▁tiếc	-11.2187
▁Tro	-11.219
ui	-11.2203
mal	-11.2205
▁khuất	-11.2211
num	-11.2212
ophora	-11.2213
Gray	-11.2216
▁lê	-11.2219
▁Bao	-11.2225
▁Dầu	-11.2226
ous	-11.2227
▁Mọi	-11.2227
▁mến	-11.2231
▁Jun	-11.2231
▁quạt	-11.2236
▁khát	-11.2237
xã	-11.2239
▁×	-11.224
▁Nan	-11.2241
▁Phaolô	-11.2242
▁dĩ	-11.2243
Hook	-11.2244
tai	-11.2247
▁Zi	-11.2251
▁Island	-11.2262
▁Rau	-11.2266
▁nôn	-11.2267
nhà	-11.2269
rid	-11.2272
cra	-11.2274
AP	-11.2274
▁Ngãi	-11.2279
lim	-11.2281
▁Gioan	-11.229
▁José	-11.2293
oni	-11.2293
zan	-11.2297
▁Nepal	-11.2297
ín	-11.23
itz	-11.2303
side	-11.2306
SP	-11.2309
▁phiêu	-11.231
▁1830	-11.2325
▁đắt	-11.2327
▁ngơi	-11.2328
76	-11.233
▁1848	-11.2332
2012	-11.2334
IC	-11.2346
▁Samsung	-11.2354
▁nghiệt	-11.2358
king	-11.236
▁Cửa	-11.2361
44	-11.2362
▁Ngạn	-11.2365
▁1849	-11.2366
▁Games	-11.2369
Do	-11.237
49	-11.237
▁Lãng	-11.2374
ole	-11.2374
▁Liêm	-11.2375
▁Chicago	-11.2376
▁tro	-11.2379
tos	-11.238
▁Day	-11.2382
▁Group	-11.2384
▁Marie	-11.2387
lea	-11.2388
cap	-11.2395
▁Bán	-11.2395
▁1992,	-11.2397
е	-11.2398
▁Sho	-11.2398
▁hit	-11.2398
kha	-11.2403
▁Lão	-11.2403
đã	-11.2406
▁Tur	-11.2407
▁College	-11.2409
▁yểm	-11.2413
▁mỏi	-11.2419
So	-11.2421
▁1851	-11.2424
▁sẫm	-11.2426
▁lùng	-11.243
1945	-11.2433
eg	-11.2436
▁tồi	-11.2439
mp	-11.244
▁kề	-11.2442
ois	-11.2449
▁Auvergne	-11.2452
▁Lycosidae	-11.2458
▁Đàn	-11.2465
▁Ngôn	-11.2468
▁Barcelona	-11.2469
ette	-11.2469
▁Yoshi	-11.2472
▁trướng	-11.2473
▁carbon	-11.2474
▁mu	-11.2479
hr	-11.2479
▁bit	-11.2482
▁mộng	-11.2493
▁Rome	-11.2499
“	-11.2501
xin	-11.2502
▁1846	-11.2507
▁Cantharidae	-11.2508
▁Ethiopia	-11.2508
▁Yo	-11.2512
rica	-11.2515
▁bộc	-11.2515
▁National	-11.2517
rio	-11.2538
▁Tipula	-11.2539
▁nghiện	-11.254
Onthophagus	-11.2543
▁láng	-11.2548
▁Syn	-11.2554
ax	-11.2558
▁Allen	-11.2566
▁cành	-11.2569
▁1840	-11.257
sco	-11.2572
mor	-11.2579
▁sấu	-11.2584
▁Cận	-11.2584
▁Pop	-11.2586
nt	-11.2588
▁chúc	-11.259
▁1872	-11.2593
▁Nà	-11.2594
▁By	-11.2594
▁Ron	-11.2595
▁Cy	-11.2601
▁Massachusetts	-11.2601
VN	-11.2601
▁Boeing	-11.2604
▁Hòn	-11.2608
una	-11.261
č	-11.2613
Me	-11.2616
opus	-11.2618
▁kem	-11.2627
Go	-11.263
▁Dựa	-11.2644
▁Ram	-11.2656
▁Will	-11.2658
ika	-11.2659
▁Bóng	-11.2662
shin	-11.2664
▁Williams	-11.2666
▁Thomisidae	-11.2666
Su	-11.2667
▁Canh	-11.267
köy	-11.2671
▁gánh	-11.2673
gas	-11.2674
▁mệt	-11.2677
▁Trắng	-11.268
▁show	-11.268
▁Thuần	-11.268
Thái	-11.2681
▁semi	-11.2686
▁Ten	-11.2688
stein	-11.2688
大	-11.2688
▁Vây	-11.269
ose	-11.2695
▁Tuân	-11.2703
▁Thạc	-11.2708
▁đằng	-11.2715
▁Triết	-11.2716
▁Amaryllidaceae	-11.2719
iae	-11.2725
▁Char	-11.2725
▁Hydropsych	-11.2727
▁140	-11.2728
▁Cher	-11.2732
▁Dubai	-11.2733
▁Marshall	-11.2737
▁sương	-11.2738
ane	-11.274
ốt	-11.2742
▁Levi	-11.2744
▁Trác	-11.2748
▁XII	-11.2751
▁đê	-11.2764
▁dập	-11.2765
▁Liban	-11.2766
▁Cass	-11.2766
▁Nhiệm	-11.2766
▁Baltic	-11.2778
▁Dư	-11.2779
▁Kor	-11.2781
▁Belarus	-11.2786
SE	-11.2791
▁20,	-11.2791
▁Nô	-11.2802
Không	-11.2804
rs	-11.2808
OS	-11.2808
gồm	-11.281
▁po	-11.2813
▁Lin	-11.2814
▁Kong	-11.2814
cle	-11.2817
Asteraceae	-11.2818
og	-11.282
ue	-11.2821
▁nếp	-11.2822
▁Hymenophyll	-11.2828
▁mini	-11.284
▁Christ	-11.2841
▁Kỵ	-11.2842
jan	-11.2843
▁Tang	-11.2844
chan	-11.2846
▁thính	-11.2848
▁Anne	-11.2849
huyện	-11.2851
▁160	-11.2852
▁Boiss	-11.2853
▁Nintendo	-11.2854
▁Dicranaceae	-11.2854
Pro	-11.2854
▁phơi	-11.2858
par	-11.2861
▁chùm	-11.2861
▁bẫy	-11.2867
▁1845	-11.2869
▁vu	-11.2872
▁hươu	-11.2872
▁Xê	-11.2879
▁buýt	-11.2881
▁Hứa	-11.2882
▁Ham	-11.2889
▁Sai	-11.289
uta	-11.2891
▁hãn	-11.2893
3/	-11.2896
▁MV	-11.2898
đặc	-11.2904
pel	-11.2904
tam	-11.2908
zon	-11.2908
▁Rico	-11.2915
▁cấy	-11.2917
red	-11.292
ema	-11.2935
▁lụa	-11.2935
ati	-11.2937
▁1841	-11.2938
are	-11.2938
DS	-11.2939
won	-11.2942
▁Bão	-11.2942
tter	-11.2948
▁Pierre	-11.2949
elle	-11.2949
phyllum	-11.2955
▁nha	-11.2957
▁trơn	-11.2958
▁Macro	-11.2959
▁albo	-11.2965
ky	-11.2967
bat	-11.2969
▁Tuổi	-11.2976
gy	-11.2977
SO	-11.2979
eh	-11.298
▁làn	-11.2982
▁ngắm	-11.299
ore	-11.2992
▁Championship	-11.2995
▁Giác	-11.2996
▁vảy	-11.2997
▁1993,	-11.3004
aya	-11.3008
AR	-11.3008
lay	-11.3012
▁Philip	-11.3013
sto	-11.3017
ờ	-11.3021
Pfalz	-11.3022
ima	-11.3025
▁bar	-11.3026
▁Schmidt	-11.3027
▁Blue	-11.3027
▁Sudan	-11.3029
Be	-11.3032
▁Than	-11.3033
▁xông	-11.3034
gin	-11.3041
▁Ng	-11.3042
▁rệt	-11.3045
ắc	-11.3045
▁700	-11.3046
▁radio	-11.3048
▁nhốt	-11.305
ania	-11.3054
Chúng	-11.3061
iformis	-11.3062
▁Inc	-11.3063
pon	-11.3073
sz	-11.3074
ái	-11.308
▁Cụ	-11.3085
▁rắc	-11.3096
tii	-11.3097
▁Pho	-11.3098
▁mãnh	-11.3099
▁đèo	-11.3099
▁Tuyết	-11.3101
▁kẽ	-11.3109
sis	-11.311
▁02	-11.3112
lé	-11.3115
▁VIII	-11.3123
▁1853	-11.3123
▁Pol	-11.3127
▁tóm	-11.3133
halli	-11.3133
Công	-11.3136
▁Dia	-11.3136
sten	-11.3137
▁Abu	-11.3138
▁Jamaica	-11.3139
▁1844	-11.3139
Ph	-11.3144
▁Mur	-11.3145
ôn	-11.3148
▁Hor	-11.3153
nin	-11.3157
Loire	-11.3158
/1	-11.3172
inia	-11.3175
▁thói	-11.3175
▁Ngài	-11.3179
▁mo	-11.318
▁thủng	-11.3186
lle	-11.3188
ive	-11.3191
▁lb	-11.3194
nik	-11.3194
▁hò	-11.3211
59	-11.3212
IS	-11.3219
▁chèo	-11.322
ig	-11.3223
▁Jones	-11.3223
Trong	-11.3228
ds	-11.3229
eno	-11.3229
▁Den	-11.3231
dom	-11.3232
ence	-11.3234
2001	-11.3234
</	-11.3235
▁!	-11.3238
yer	-11.3242
▁cuống	-11.3246
▁đ	-11.3249
▁pho	-11.3251
▁Bon	-11.3252
tuần	-11.3256
dus	-11.3257
▁Mil	-11.3257
aki	-11.3258
▁cồn	-11.3261
tina	-11.3265
▁Tạp	-11.3274
▁lánh	-11.3276
của	-11.3277
lov	-11.3278
pat	-11.3278
▁Chris	-11.3279
▁Sim	-11.3279
▁thiêu	-11.3279
mir	-11.3281
▁Bol	-11.3283
▁Chan	-11.3285
aga	-11.3288
ắt	-11.3294
▁chọc	-11.3297
▁Iceland	-11.3297
uro	-11.3299
tô	-11.3303
▁xinh	-11.3304
▁Wang	-11.3305
▁brevi	-11.3306
▁Trúc	-11.3307
▁thấu	-11.3315
▁Lớp	-11.3316
▁điên	-11.3317
▁Thôi	-11.332
▁bái	-11.3321
▁lội	-11.3323
▁lu	-11.3324
ë	-11.3324
▁Sul	-11.333
▁Leptocer	-11.3338
Danh	-11.3343
▁Bolivia	-11.3344
yr	-11.335
▁US	-11.335
▁bính	-11.3351
ob	-11.3352
▁Lời	-11.3352
▁Chuột	-11.3358
▁Romania	-11.3362
▁Út	-11.3363
▁thạc	-11.3365
▁Paulo	-11.3365
▁Wal	-11.3371
phan	-11.3374
▁Cựu	-11.3382
▁Company	-11.3396
▁Stephen	-11.3399
▁toà	-11.3403
▁Socorro	-11.3405
▁Rai	-11.3408
eum	-11.3408
▁61	-11.3409
ess	-11.3415
▁cu	-11.3431
II	-11.3439
▁Moon	-11.3442
quin	-11.3447
▁EP	-11.3447
69	-11.3447
▁sủng	-11.3449
chin	-11.3451
▁#	-11.3453
sai	-11.346
▁trán	-11.3465
▁Bengal	-11.3467
mun	-11.3467
ture	-11.3468
▁báu	-11.3476
ben	-11.3476
▁2,5	-11.3479
vis	-11.348
▁single	-11.3483
▁XIV	-11.3483
▁Sky	-11.3484
88	-11.3486
▁Chú	-11.3486
▁trưa	-11.3487
▁truất	-11.3487
▁der	-11.3489
ọ	-11.3492
hal	-11.3493
adi	-11.3494
▁PC	-11.3494
1997	-11.35
TS	-11.3501
▁Francis	-11.3501
▁Gruzia	-11.3501
long	-11.3503
▁Ð	-11.3508
▁63	-11.351
66	-11.3515
▁hước	-11.3525
▁Gray	-11.3527
▁1989,	-11.3529
én	-11.3531
eni	-11.3534
▁Khách	-11.3539
▁Es	-11.3545
||	-11.3547
▁Aspleni	-11.3547
▁kali	-11.3549
▁Stra	-11.355
▁Litva	-11.3551
ear	-11.3558
ila	-11.3562
ngo	-11.3563
▁Adam	-11.3563
hy	-11.3567
56	-11.3568
▁uốn	-11.3576
ów	-11.3578
▁Băng	-11.3578
▁80%	-11.358
Gi	-11.3581
▁Niên	-11.3581
▁Liga	-11.3587
CH	-11.3594
Man	-11.3602
▁Cactaceae	-11.3603
▁Vài	-11.3607
▁giềng	-11.3608
▁Android	-11.3613
▁nai	-11.3613
▁Chữ	-11.3614
▁Bad	-11.3615
71	-11.3617
▁Sydney	-11.362
feld	-11.3626
▁?	-11.3626
с	-11.3626
ks	-11.3631
Mar	-11.3632
illo	-11.3632
▁Euphorbia	-11.3638
▁nồi	-11.3647
▁hao	-11.3651
▁Tết	-11.3666
anh	-11.3666
ias	-11.3669
ải	-11.3671
ning	-11.3674
▁Norfolk	-11.3676
Tây	-11.3676
iflora	-11.3688
▁Bàng	-11.3689
▁Sh	-11.3689
ese	-11.3689
▁Trump	-11.3695
▁1930,	-11.3698
▁ao	-11.3698
▁đam	-11.3699
▁Fer	-11.3701
maculata	-11.3702
our	-11.3703
MA	-11.3712
▁Carex	-11.3716
▁Hoan	-11.372
▁are	-11.3721
▁Lake	-11.3723
▁Carlos	-11.3724
▁at	-11.3724
▁Matt	-11.3725
fu	-11.373
▁Đá	-11.3731
2003	-11.3733
▁dừa	-11.3735
▁Queensland	-11.3735
▁Slovakia	-11.3736
▁Trùng	-11.3736
ử	-11.3745
uli	-11.3745
▁Georgia	-11.3752
▁Thảo	-11.3755
▁đinh	-11.3757
of	-11.3759
73	-11.3764
▁Oregon	-11.3765
▁Un	-11.3773
icum	-11.3778
▁chiết	-11.378
ech	-11.3781
▁2020	-11.3786
sc	-11.3787
khu	-11.379
▁Cra	-11.3791
[	-11.3804
Cha	-11.3804
▁Nậm	-11.381
▁Mĩ	-11.3811
▁Pen	-11.3811
▁Gò	-11.3811
▁Indiana	-11.3813
97	-11.3813
▁Phil	-11.3814
CBS	-11.3814
▁Vấn	-11.382
rei	-11.3821
ấu	-11.3823
▁Yến	-11.3825
ith	-11.3828
▁Herbert	-11.3829
▁Hắc	-11.3831
▁Broth	-11.3834
▁rậm	-11.3839
▁rỗng	-11.3839
▁School	-11.3839
▁Neu	-11.3846
▁Mitt	-11.3847
ovich	-11.3847
▁Nhận	-11.3854
nos	-11.3854
▁Sát	-11.3854
▁codice	-11.3859
▁tạc	-11.386
My	-11.3863
aw	-11.3863
ST	-11.3864
▁Time	-11.3868
aba	-11.3872
▁Mag	-11.3872
▁Up	-11.3874
▁Sung	-11.3874
ama	-11.3875
▁ngõ	-11.3879
Ga	-11.3882
lor	-11.3888
▁Royal	-11.389
ellus	-11.3891
▁Ea	-11.3893
tạm	-11.3894
ấp	-11.3908
hiện	-11.3912
▁lãi	-11.3914
▁Jin	-11.3916
▁cớ	-11.3919
▁04	-11.3921
sp	-11.3922
▁thầu	-11.3924
▁macro	-11.3929
▁Sony	-11.3931
gor	-11.3931
sey	-11.3932
▁Mat	-11.3933
▁Palomar	-11.3934
▁trễ	-11.3934
▁Caribe	-11.3935
▁Tumkur	-11.3939
Bulbophyllum	-11.3943
Psychotria	-11.3944
▁Kênh	-11.3944
▁nhai	-11.3949
ction	-11.395
▁Tràng	-11.395
heim	-11.3951
▁Sachsen	-11.3951
▁multi	-11.3951
PA	-11.3954
98	-11.3959
78	-11.396
ký	-11.3961
dens	-11.3962
▁Wolf	-11.3962
▁Libya	-11.3966
▁Somme	-11.3968
91	-11.3969
▁Rheinland	-11.3969
▁Grande	-11.397
▁tạ	-11.3974
bb	-11.3977
▁khuếch	-11.3981
▁khoá	-11.3985
▁khiết	-11.3985
▁News	-11.3987
▁180	-11.3991
▁1965,	-11.3995
▁Anti	-11.3998
▁rực	-11.3999
▁Đêm	-11.4001
▁1979,	-11.4002
▁Cấu	-11.4003
▁Mas	-11.4013
▁Giêsu	-11.4015
▁Ivan	-11.4015
▁Dền	-11.4023
▁Frederick	-11.4025
”,	-11.4025
ít	-11.4026
▁95	-11.4031
▁NATO	-11.4035
▁Chẳng	-11.4035
ER	-11.4036
▁khống	-11.4038
mani	-11.4038
▁Sur	-11.4039
To	-11.404
elli	-11.405
SI	-11.4055
kawa	-11.4056
day	-11.4058
nas	-11.406
▁Myanmar	-11.4062
▁1856	-11.4066
▁XIII	-11.4073
▁gán	-11.4074
▁Lân	-11.4082
74	-11.4083
▁Mở	-11.4087
▁Norman	-11.4091
94	-11.4096
anensis	-11.4096
▁species	-11.4101
▁Ang	-11.4103
nghĩa	-11.4106
vir	-11.4107
▁sùng	-11.4107
▁quyến	-11.4109
cum	-11.4116
tỉnh	-11.4118
ago	-11.4118
cro	-11.4119
cos	-11.4123
87	-11.4125
▁Jung	-11.4133
▁Duyên	-11.4133
▁1988,	-11.4136
▁roi	-11.4137
▁88	-11.4138
sing	-11.4141
▁Alaska	-11.4143
zar	-11.4146
▁Bạt	-11.4148
▁Gracillariidae	-11.4152
▁Torino	-11.4153
▁vớt	-11.4153
▁77	-11.4154
▁Taka	-11.4156
▁nhục	-11.4157
bol	-11.4164
▁Chấn	-11.4164
▁bơm	-11.4165
icornis	-11.4166
▁para	-11.4171
▁03	-11.4173
▁Xây	-11.4174
▁Gregory	-11.4179
▁HD	-11.4186
▁Schleswig	-11.4188
sson	-11.4189
công	-11.4189
DP	-11.4196
_3	-11.4207
Mỹ	-11.4209
▁xi	-11.4213
▁uỷ	-11.4214
CO	-11.4214
ward	-11.4216
▁Alan	-11.4223
▁Chức	-11.4226
▁tràng	-11.423
▁Franklin	-11.4231
▁râu	-11.4235
Bắc	-11.424
Tổng	-11.4244
▁Uruguay	-11.4245
Chuyến	-11.4245
▁giường	-11.4245
▁xăng	-11.4246
nic	-11.4246
▁85	-11.425
▁Đoạn	-11.4253
▁đếm	-11.4256
key	-11.4259
▁Phản	-11.4262
ire	-11.4266
pet	-11.4267
▁68	-11.427
▁rỡ	-11.4271
▁Ç	-11.4272
▁nguyệt	-11.4277
▁mổ	-11.4291
▁chán	-11.4291
▁Kal	-11.4293
▁Pedro	-11.4293
uda	-11.4297
▁Seine	-11.4298
▁62	-11.4299
Car	-11.4299
://	-11.4303
▁Gabriel	-11.4304
▁Wild	-11.4304
▁Ay	-11.4305
▁bì	-11.4306
▁bận	-11.4308
ille	-11.431
light	-11.4312
▁rãnh	-11.4315
▁viền	-11.4317
▁thề	-11.4318
viết	-11.4318
▁Guatemala	-11.4328
▁khéo	-11.4328
▁British	-11.4328
cur	-11.433
▁Aga	-11.4335
▁dọn	-11.4335
NA	-11.4337
▁Antonio	-11.4342
óc	-11.4343
▁vần	-11.4344
star	-11.4345
▁đoan	-11.4346
▁Khuê	-11.4349
▁xôi	-11.435
▁Masa	-11.4351
gui	-11.4351
▁1847	-11.4352
eau	-11.4353
▁Lô	-11.4353
NH	-11.436
xia	-11.4361
▁tạng	-11.4362
Ngày	-11.4364
▁Gaga	-11.4368
▁59	-11.437
▁Sc	-11.4371
▁Swift	-11.4375
▁90%	-11.4379
Holstein	-11.4381
▁Gal	-11.4383
▁Papua	-11.4389
esia	-11.4396
▁kị	-11.4398
▁05	-11.4401
▁nứt	-11.4402
▁Bangladesh	-11.4407
▁1956,	-11.4408
▁66	-11.441
▁Wood	-11.4411
▁hoành	-11.4412
▁khoác	-11.4417
Đông	-11.4418
у	-11.4422
▁1972,	-11.4422
▁nắp	-11.4423
spi	-11.4431
▁Tum	-11.4432
iaceae	-11.4434
▁mar	-11.4438
ophila	-11.4439
▁dồn	-11.4442
▁vitamin	-11.4448
trên	-11.4452
▁Bru	-11.4454
ted	-11.4457
▁Ngự	-11.446
▁Bob	-11.4461
92	-11.4461
Araneus	-11.4465
1996	-11.4467
▁Sicilia	-11.4471
Clarke	-11.4473
▁Solomon	-11.4476
CC	-11.4476
▁Alexandria	-11.4477
▁nigro	-11.4478
▁Alex	-11.448
▁dịu	-11.4481
shu	-11.4481
▁đục	-11.4481
▁1968,	-11.4487
fen	-11.4488
gua	-11.449
▁Amazon	-11.4493
▁Duệ	-11.4498
hl	-11.4505
SA	-11.4507
▁Cameroon	-11.4508
ance	-11.4508
NO	-11.4508
▁70%	-11.4509
/12/	-11.451
Hoàng	-11.4511
▁Cre	-11.4514
▁set	-11.4516
▁Copel	-11.4519
▁Kolar	-11.4521
▁Đi	-11.4523
ulata	-11.4524
▁Lệnh	-11.4526
▁Bri	-11.4528
о	-11.4531
ces	-11.4535
▁HIV	-11.4536
nar	-11.4536
av	-11.4541
▁Nền	-11.4542
▁Ash	-11.4543
Hung	-11.4545
mur	-11.4547
NC	-11.4548
cùng	-11.4554
anda	-11.456
▁ngặt	-11.4561
▁fu	-11.4563
▁Malta	-11.4563
ito	-11.4565
gre	-11.4567
Moore	-11.4569
▁Art	-11.4571
▁Trại	-11.4572
▁Ray	-11.4572
Ko	-11.4573
▁Davis	-11.4573
Muell	-11.4577
▁20%	-11.4579
▁Alfred	-11.4583
▁Lewis	-11.4588
ão	-11.4591
▁ghé	-11.4592
▁Diêm	-11.46
▁Trẻ	-11.4604
▁xuôi	-11.4604
▁Thúy	-11.4605
▁River	-11.4606
▁euro	-11.4614
das	-11.4615
ước	-11.4617
Gu	-11.4618
ao	-11.4626
▁xơ	-11.4628
tella	-11.4633
▁1842	-11.4634
ism	-11.4634
▁Por	-11.4634
▁Las	-11.4635
▁Ít	-11.4636
▁or	-11.464
▁Khiêm	-11.464
ox	-11.4642
▁dối	-11.4643
Ne	-11.4647
pia	-11.4648
San	-11.4657
▁Hạo	-11.4663
▁pu	-11.4674
▁Muhammad	-11.4679
oo	-11.4684
▁Đằng	-11.4685
▁khoẻ	-11.4685
▁Rad	-11.4686
▁rung	-11.4688
ợ	-11.4693
▁Open	-11.4699
▁ngâm	-11.4701
▁Thiểm	-11.4706
▁Champion	-11.4707
▁vằn	-11.4708
▁luyến	-11.4712
▁Cin	-11.4712
▁Linux	-11.4713
▁thoải	-11.4717
▁County	-11.4717
▁1976,	-11.472
▁Ag	-11.4721
▁nang	-11.4722
ello	-11.4724
▁Nor	-11.4724
▁ngạn	-11.4725
▁Ou	-11.473
▁Gon	-11.4734
▁chay	-11.4736
▁Toán	-11.4738
▁ráp	-11.4739
▁Bột	-11.4741
▁trù	-11.4741
zia	-11.4744
▁Leon	-11.4748
▁Đỉnh	-11.475
0°	-11.4755
▁Kazakhstan	-11.4761
▁út	-11.4763
color	-11.4766
▁lí	-11.4767
▁Sel	-11.4768
▁rể	-11.4773
▁1964,	-11.4777
▁nigri	-11.478
▁ham	-11.4781
usa	-11.4782
vì	-11.4784
▁gìn	-11.4784
▁nhôm	-11.4787
▁Kin	-11.4788
por	-11.4791
tana	-11.4793
oid	-11.4793
▁Xu	-11.4795
kra	-11.4798
▁Are	-11.4798
ava	-11.4799
▁mõm	-11.4799
ī	-11.4799
esi	-11.48
▁Stephani	-11.4803
▁Douglas	-11.4803
ugh	-11.4803
▁1837	-11.4808
▁nhắn	-11.481
pod	-11.4811
phylla	-11.4812
▁Dal	-11.4812
▁lót	-11.4816
▁Hon	-11.4824
▁Nhan	-11.4826
▁Jersey	-11.4827
▁1824	-11.483
▁Corporation	-11.4832
ise	-11.4833
▁Bulbophyllum	-11.4838
▁XVI	-11.4843
▁PlayStation	-11.4843
NG	-11.4845
▁Hang	-11.4846
▁1843	-11.4846
dd	-11.4848
▁Lawrence	-11.4848
wal	-11.4854
ical	-11.4859
▁Tamil	-11.4862
▁1939,	-11.4863
hol	-11.4866
uz	-11.4869
▁Sakura	-11.4871
anti	-11.4876
77	-11.4877
▁Lũng	-11.4877
▁170	-11.4878
och	-11.488
other	-11.4884
▁Ny	-11.4891
AC	-11.4892
nen	-11.4893
▁leuco	-11.4897
▁nung	-11.4902
ệt	-11.4904
str	-11.4905
▁Mega	-11.4906
▁Ros	-11.4908
ển	-11.4911
▁giun	-11.4911
▁Sara	-11.4912
▁Nhu	-11.4917
iko	-11.4919
▁Land	-11.492
▁University	-11.492
▁XI	-11.4924
▁Shah	-11.4926
▁Chiết	-11.4929
CS	-11.493
▁giang	-11.493
evich	-11.4931
ị	-11.4931
▁Yemen	-11.4933
2017	-11.4933
▁Pla	-11.4941
▁Mang	-11.4941
▁Sắc	-11.4941
ars	-11.4943
▁NGC	-11.4944
Thiên	-11.4944
xe	-11.4945
▁1827	-11.4949
õ	-11.495
▁Andrew	-11.4953
▁dẻo	-11.4956
ux	-11.4957
ăn	-11.4959
公	-11.4959
▁Bành	-11.4963
▁Marc	-11.4967
▁Sứ	-11.4969
▁thấm	-11.497
▁Joe	-11.4972
63	-11.4974
ries	-11.4974
▁Chang	-11.4976
▁bồ	-11.4978
▁amin	-11.4984
▁Hạnh	-11.4984
▁IX	-11.4993
▁tặc	-11.4993
▁mẻ	-11.4994
sim	-11.4997
ế	-11.4998
Pháp	-11.4999
ồng	-11.5001
fra	-11.5002
gla	-11.5007
Star	-11.501
▁Brian	-11.5015
had	-11.5023
▁67	-11.5026
▁bin	-11.5031
▁Studios	-11.5031
▁Lành	-11.5033
▁pe	-11.5033
Chiến	-11.5036
▁Diêu	-11.5045
▁101	-11.505
89	-11.5051
ord	-11.5051
▁phím	-11.5053
ip	-11.5057
ms	-11.506
mber	-11.506
▁Gro	-11.5065
▁Biện	-11.5067
▁website	-11.5071
lei	-11.5072
▁măng	-11.5075
▁Cap	-11.5076
▁car	-11.5082
▁1852	-11.5082
▁Trạm	-11.5082
aca	-11.5084
▁Hoá	-11.5085
▁Mỏ	-11.5086
ách	-11.509
tle	-11.5091
▁lựu	-11.5094
▁Tốc	-11.5094
▁Jr	-11.5095
▁chặng	-11.5097
▁Life	-11.5104
▁niêm	-11.5105
▁Sultan	-11.5112
▁Dun	-11.5112
4,	-11.5112
hen	-11.5113
/5	-11.5114
▁Vũng	-11.5116
ega	-11.5118
▁Mê	-11.512
uensis	-11.512
▁xả	-11.5121
Cor	-11.5127
▁Eupitheci	-11.5128
▁ướp	-11.5128
1991	-11.5128
▁1833	-11.5131
▁Zimbabwe	-11.5133
▁thiếp	-11.5135
▁High	-11.514
▁Des	-11.5142
Si	-11.5146
▁bu	-11.5147
▁sâm	-11.5147
▁Xi	-11.5148
▁cỗ	-11.5148
▁Hol	-11.5152
▁Dần	-11.5152
▁Caesar	-11.5159
▁quấy	-11.5162
▁09	-11.5162
▁Myrmeleontidae	-11.5167
▁huỷ	-11.5173
▁lượn	-11.5176
▁Philadelphia	-11.5177
TT	-11.518
ij	-11.518
▁Thao	-11.5183
▁chuồng	-11.5195
▁Otto	-11.5198
ł	-11.52
eti	-11.52
lai	-11.5201
sho	-11.5208
▁Ngà	-11.5212
▁1967,	-11.5212
▁Tọa	-11.5213
2002	-11.5213
sso	-11.5216
▁America	-11.522
▁Sierra	-11.5225
▁Nova	-11.5225
▁Ball	-11.5226
▁Naruto	-11.5227
▁nhược	-11.5229
▁Xung	-11.523
▁Bangkok	-11.5236
▁Bính	-11.5237
▁Hei	-11.5239
▁Kepler	-11.5241
assa	-11.5247
▁trắc	-11.5247
▁khiếp	-11.5256
▁Île	-11.5259
rai	-11.5261
enberg	-11.5261
▁beta	-11.5263
Sematophyllaceae	-11.5266
▁thục	-11.5267
▁lộc	-11.5267
▁Xứ	-11.5267
▁Slav	-11.5269
▁cay	-11.5275
▁Jerusalem	-11.5276
phát	-11.5278
▁huynh	-11.5281
▁1974,	-11.5281
nata	-11.5283
▁Ross	-11.5284
enburg	-11.5285
ath	-11.5285
die	-11.5288
▁1839	-11.5292
Theridion	-11.5293
▁Thai	-11.5295
Nhà	-11.5298
ầm	-11.5298
▁Centre	-11.5299
gus	-11.5301
eira	-11.5302
▁Cat	-11.5302
▁1949,	-11.5303
shima	-11.5306
inger	-11.5306
▁đuối	-11.5311
▁hở	-11.5311
1995	-11.5311
▁350	-11.5312
83	-11.5312
▁Ul	-11.5315
▁cõi	-11.5322
81	-11.5323
gọi	-11.5324
sioglossum	-11.533
old	-11.533
phen	-11.5332
aux	-11.5332
▁1963,	-11.5332
▁Giuse	-11.5334
900	-11.5336
llo	-11.5339
▁Hans	-11.534
lac	-11.5342
▁06	-11.5346
sil	-11.5348
▁Harvard	-11.5351
▁kẹt	-11.5351
TO	-11.5352
fasciata	-11.5352
ấn	-11.5356
▁Dục	-11.5357
▁Nord	-11.5358
soni	-11.5363
nal	-11.5364
▁Spi	-11.5366
▁Kavkaz	-11.5368
eria	-11.5375
▁Hama	-11.5377
▁lát	-11.5378
sca	-11.538
SS	-11.5383
bri	-11.5386
ET	-11.5387
ục	-11.5388
ích	-11.5391
▁Rider	-11.54
▁Spe	-11.54
▁Street	-11.5401
▁Cyatheaceae	-11.5403
▁Marx	-11.5404
▁khinh	-11.5405
▁Gold	-11.5409
▁WWE	-11.5409
▁Jaeger	-11.5409
lli	-11.5411
▁Sharp	-11.5412
▁Ky	-11.5413
▁khiếu	-11.5414
▁Myanma	-11.5418
iidae	-11.542
eck	-11.5423
▁Luis	-11.5426
▁Nằm	-11.5427
town	-11.543
▁0,	-11.543
▁Vladimir	-11.5432
▁Walt	-11.5433
▁Lim	-11.5437
子	-11.5438
RT	-11.5447
org	-11.545
▁hoài	-11.545
ming	-11.5453
▁Bro	-11.5453
▁Conidae	-11.5455
▁UK	-11.5456
▁Angola	-11.5456
▁Estonia	-11.5462
gna	-11.5467
Sch	-11.5467
▁EU	-11.5469
67	-11.5471
▁ốm	-11.5474
▁1973,	-11.5476
RA	-11.5478
▁Dao	-11.5479
Pe	-11.5479
kal	-11.5482
etti	-11.5482
Hi	-11.5496
ere	-11.5496
▁town	-11.55
▁Billboard	-11.5501
cô	-11.5503
▁má	-11.5509
82	-11.5509
▁Eric	-11.551
▁Bern	-11.551
ssa	-11.5514
▁Bush	-11.5515
▁María	-11.5515
1975	-11.5517
cc	-11.5518
▁Kai	-11.5519
ấm	-11.552
▁ÂL	-11.552
ert	-11.552
в	-11.5523
rou	-11.5528
▁khốc	-11.5529
▁1969,	-11.5529
▁Ala	-11.5536
▁huỳnh	-11.5538
escens	-11.554
▁flavi	-11.5541
▁1855	-11.5542
▁Eri	-11.5542
issa	-11.5543
▁nhuộm	-11.5544
▁Walker	-11.5546
▁360	-11.5549
ỳ	-11.5549
far	-11.5552
▁Jong	-11.5553
oka	-11.5555
ophyllum	-11.5557
▁Áp	-11.5558
League	-11.5558
▁1947,	-11.5564
▁Bank	-11.5565
▁Spa	-11.5565
Love	-11.5567
д	-11.5569
▁Ple	-11.5572
nom	-11.5573
▁Mới	-11.5574
set	-11.5575
▁Maroc	-11.5576
ule	-11.5578
▁quadri	-11.5584
ỉ	-11.5589
▁Op	-11.5592
▁kí	-11.5594
68	-11.5595
▁Sức	-11.5597
AD	-11.56
▁Sphingidae	-11.5603
▁House	-11.5603
▁Nick	-11.5605
▁Sy	-11.5606
▁rèn	-11.561
▁ti	-11.561
she	-11.5612
ct	-11.5614
6,	-11.5614
Po	-11.5619
pre	-11.5625
▁publ	-11.5627
AS	-11.5627
▁Kiev	-11.5632
ashi	-11.5632
▁Standl	-11.5633
▁Tunisia	-11.5634
▁Victor	-11.5636
gg	-11.5638
▁giếng	-11.5639
ets	-11.564
ãy	-11.5643
rad	-11.5646
▁Dicran	-11.566
▁Asplenium	-11.566
▁1832	-11.5664
▁Auto	-11.5665
bis	-11.5667
▁rỉ	-11.5669
▁96	-11.5669
▁UFO	-11.5679
▁nọc	-11.5682
▁Roger	-11.5683
điều	-11.5683
▁Hen	-11.5689
ập	-11.569
BS	-11.5691
▁CO	-11.5692
▁gắt	-11.5693
mura	-11.5694
▁Lepto	-11.5695
gr	-11.5696
Da	-11.5699
▁thưa	-11.5699
_4	-11.5699
time	-11.5702
▁Trưng	-11.5711
▁Slovenia	-11.5713
▁Borneo	-11.5716
$	-11.5716
He	-11.5717
cá	-11.5718
6/	-11.5718
▁Khúc	-11.5719
▁nhàng	-11.5722
ral	-11.5722
▁1987,	-11.5723
▁1971,	-11.573
▁Banks	-11.5731
▁1834	-11.5733
ies	-11.5733
▁Beatles	-11.5735
▁Der	-11.5738
▁07	-11.5738
ũ	-11.5742
▁gò	-11.5744
Presl	-11.5749
▁cor	-11.5755
▁1986,	-11.5757
phy	-11.5757
▁Hoành	-11.5758
▁Alexandros	-11.5759
▁đan	-11.5759
ls	-11.5761
▁nón	-11.5763
▁Kích	-11.5767
mid	-11.577
▁thê	-11.5772
▁Great	-11.5774
▁AC	-11.5775
yana	-11.5781
ick	-11.5782
▁trans	-11.5784
▁105	-11.579
▁1978,	-11.5792
▁Maha	-11.5793
rk	-11.5796
▁Cứ	-11.5797
▁sốc	-11.5801
▁End	-11.5801
ây	-11.5805
Bi	-11.5807
▁76	-11.5807
ee	-11.5812
▁quặng	-11.5813
▁Nghiêm	-11.5813
iga	-11.5815
▁Ford	-11.5816
sun	-11.5816
thu	-11.5818
ug	-11.5819
▁Aleksandr	-11.5819
rang	-11.5841
dé	-11.5843
ẽ	-11.5844
ile	-11.5847
ree	-11.5856
DD	-11.5856
▁ngạnh	-11.5859
Tam	-11.586
▁mép	-11.5863
▁1985,	-11.5868
▁69	-11.5868
▁Newton	-11.5875
ill	-11.5878
fin	-11.5893
▁đống	-11.5895
▁LGBT	-11.5898
▁Manila	-11.59
▁Tắc	-11.5901
▁nóc	-11.5902
▁Bé	-11.5906
▁SA	-11.5907
▁Đàng	-11.5911
ington	-11.5914
▁mono	-11.5917
omys	-11.5917
▁UBND	-11.5918
tsch	-11.5919
▁Kane	-11.5921
mark	-11.5921
RS	-11.5922
clo	-11.5926
▁Roman	-11.5927
ía	-11.5927
onne	-11.5927
▁Angel	-11.5931
▁Aires	-11.5931
OC	-11.5932
ppa	-11.5932
thy	-11.5932
▁Mike	-11.5933
▁125	-11.5938
EC	-11.5938
Hy	-11.5938
▁laser	-11.5939
▁Gun	-11.5941
sum	-11.5942
▁Mus	-11.5949
▁Ngu	-11.595
▁73	-11.5951
ạn	-11.5953
▁gặm	-11.5953
▁Santiago	-11.5955
sie	-11.5963
Sha	-11.5963
Côte	-11.5965
▁chênh	-11.5966
til	-11.5966
▁play	-11.5968
▁Channel	-11.5972
▁rũ	-11.5972
></	-11.5974
ID	-11.5976
ope	-11.5976
▁mịn	-11.5982
▁Biệt	-11.5984
▁đạc	-11.5985
▁Gra	-11.5986
▁đao	-11.5987
▁Bruchidae	-11.599
1994	-11.5996
▁Urb	-11.5996
▁Bueno	-11.5998
▁quyên	-11.5998
air	-11.6
Benth	-11.6
tti	-11.6002
ố	-11.6004
hard	-11.6004
▁Johann	-11.6005
▁Tsu	-11.6006
út	-11.6008
▁Anthicidae	-11.6009
▁Vatican	-11.6009
▁cẩu	-11.6009
▁Brunei	-11.6009
cel	-11.601
▁MC	-11.6013
▁Osaka	-11.6016
▁Cờ	-11.6019
▁bén	-11.6019
▁Bangalore	-11.6021
▁rổ	-11.6022
▁kẽm	-11.6023
▁Girls	-11.6023
▁Cừu	-11.6023
▁Cán	-11.6025
▁Muricidae	-11.6027
▁rước	-11.6028
▁phác	-11.6031
▁gả	-11.6033
▁Mozambique	-11.6034
▁München	-11.6034
ür	-11.6035
1990	-11.6038
ồn	-11.6039
▁08	-11.6045
Pardosa	-11.6046
▁Lombardia	-11.6047
1989	-11.6047
ain	-11.6048
▁Warsaw	-11.6049
▁Baden	-11.6049
▁khép	-11.6052
▁Gừng	-11.6054
▁Im	-11.6061
▁Lei	-11.6062
▁phôi	-11.6063
iza	-11.6065
2018	-11.6067
▁Yêu	-11.6067
Mu	-11.6069
dow	-11.607
▁Nar	-11.6073
Ni	-11.6078
▁Đoan	-11.6078
ùng	-11.6084
amp	-11.6089
tas	-11.6091
▁Ferdinand	-11.6096
п	-11.6096
▁1962,	-11.6098
▁hoạ	-11.61
▁Rồi	-11.6104
▁Old	-11.6116
▁lati	-11.6116
▁Dam	-11.6117
ful	-11.6118
avi	-11.6119
▁1959,	-11.612
cera	-11.612
▁chai	-11.6122
▁Chen	-11.6125
ico	-11.6132
▁Bruce	-11.6133
UN	-11.6133
▁Leyte	-11.6134
less	-11.6134
fort	-11.6135
▁Fort	-11.6138
李	-11.6139
gli	-11.614
▁thùy	-11.6145
▁Madonna	-11.6146
mph	-11.6147
▁Alice	-11.6148
osaurus	-11.6149
▁1825	-11.615
▁khoai	-11.6152
▁mắm	-11.6153
ness	-11.6158
▁Junior	-11.6158
cz	-11.6162
Nữ	-11.6165
▁Thuyết	-11.6165
aro	-11.6167
ticus	-11.6167
▁Koch	-11.6168
▁81	-11.6169
▁Kiếm	-11.6171
▁clo	-11.6173
sma	-11.6176
▁Begonia	-11.6177
▁Fin	-11.6178
đa	-11.6178
TP	-11.6179
mine	-11.618
DA	-11.6181
▁Mối	-11.6181
âu	-11.6182
arius	-11.6183
▁gộp	-11.6184
lot	-11.6186
TC	-11.6186
asa	-11.6187
ống	-11.619
▁Oxford	-11.619
ston	-11.6192
▁lăn	-11.62
▁1966,	-11.62
▁Chrysopidae	-11.6202
/10/	-11.6206
▁that	-11.6208
▁Bun	-11.6209
▁chuối	-11.621
▁Tricho	-11.6217
▁CH	-11.6217
▁God	-11.6228
▁Sil	-11.6228
▁xí	-11.6232
▁Giản	-11.6232
▁Radio	-11.6237
▁Perry	-11.624
▁Mari	-11.6243
FC	-11.625
hn	-11.625
▁clorua	-11.6251
ame	-11.6252
▁par	-11.6254
court	-11.6258
▁ngụy	-11.6258
▁tưới	-11.6261
ỏ	-11.6265
dale	-11.6265
dae	-11.6265
▁É	-11.627
▁Hand	-11.6271
▁Thí	-11.6274
rey	-11.6275
▁Ker	-11.6276
moto	-11.6279
cre	-11.6279
▁Dạng	-11.628
ào	-11.628
Hội	-11.6284
▁Sei	-11.6285
▁Cuồng	-11.6287
▁51%	-11.6293
Từ	-11.6295
▁bế	-11.6296
▁đớn	-11.6297
▁Thậm	-11.6298
▁Thật	-11.6299
▁Azerbaijan	-11.6304
▁Pod	-11.6305
its	-11.6307
▁Award	-11.631
▁gân	-11.6311
▁ATP	-11.6314
▁Fre	-11.6315
1992	-11.6316
▁đùa	-11.6316
▁Hemi	-11.6319
▁17,	-11.6323
▁1982,	-11.6324
▁Bò	-11.6324
Schum	-11.6327
▁Qui	-11.633
▁gay	-11.6331
lina	-11.6336
▁Vọng	-11.6336
▁Wei	-11.6336
▁Rừng	-11.6338
▁Miên	-11.6343
▁Dinh	-11.6344
▁1948,	-11.6346
▁lậu	-11.6348
nhưng	-11.6349
ã	-11.6352
▁60%	-11.6354
uch	-11.6355
▁Địch	-11.6361
▁Scincidae	-11.6368
▁kiều	-11.6368
▁Bướm	-11.6368
▁tâu	-11.6368
ẻ	-11.6369
zel	-11.6369
ono	-11.6371
▁Franz	-11.6374
PS	-11.6379
ắn	-11.6379
▁Jon	-11.6386
sol	-11.6388
▁Mah	-11.6388
▁Aleyrodidae	-11.6389
▁chiên	-11.639
rt	-11.6391
enia	-11.6391
▁1831	-11.6394
▁Mol	-11.6394
▁Tortricidae	-11.64
▁Anderson	-11.6402
ø	-11.6402
▁Stan	-11.6408
fur	-11.6413
▁Krym	-11.6414
back	-11.6419
▁Guadalcanal	-11.6419
▁Galaxy	-11.6419
▁Chứng	-11.6426
▁nàn	-11.6426
▁Tố	-11.6429
oa	-11.6431
▁Mali	-11.6433
LA	-11.6434
All	-11.6436
stin	-11.6437
▁gi	-11.6439
dam	-11.6441
▁phả	-11.6444
▁Endomychidae	-11.6445
▁Lip	-11.6445
▁Lenin	-11.6447
chính	-11.6447
ado	-11.645
▁Bretagne	-11.6451
▁1961,	-11.6452
Te	-11.6454
▁Batman	-11.6454
oxy	-11.6458
▁đọng	-11.6459
▁chài	-11.6461
ander	-11.6461
▁Rhynchit	-11.6464
▁robot	-11.6465
oro	-11.6468
▁nhô	-11.6469
tron	-11.647
▁sỹ	-11.6471
Ti	-11.6474
cas	-11.6479
bur	-11.648
▁Spring	-11.648
▁Meta	-11.6481
ons	-11.6481
sburg	-11.6483
▁gậy	-11.6484
▁Qatar	-11.6484
▁Network	-11.6485
▁Wu	-11.6488
yang	-11.6488
iba	-11.6492
plex	-11.6501
▁cọ	-11.6503
pla	-11.6503
▁xé	-11.6506
▁Jacob	-11.6507
▁Guam	-11.6507
▁Pays	-11.6508
ör	-11.651
▁Chuyên	-11.651
hun	-11.651
▁Miller	-11.6511
rich	-11.6512
oz	-11.6515
▁bồn	-11.6527
cla	-11.6528
gro	-11.6528
▁giã	-11.6529
rov	-11.6529
ulu	-11.6533
▁1984,	-11.6538
▁1958,	-11.654
isa	-11.654
▁Khanh	-11.6544
▁49%	-11.6546
ave	-11.6546
họ	-11.655
ld	-11.6551
2/	-11.6555
▁her	-11.656
▁İ	-11.6561
tensis	-11.6562
▁Out	-11.6566
Mitt	-11.6568
▁Lợn	-11.6568
▁Khái	-11.6568
aj	-11.6569
NS	-11.6569
▁1828	-11.6572
mặc	-11.6572
▁NASA	-11.6575
para	-11.6577
tea	-11.6579
▁khanh	-11.658
▁Şanlıurfa	-11.6581
dol	-11.6585
▁Sk	-11.6587
▁Schi	-11.6589
ED	-11.6592
sec	-11.6592
▁fa	-11.6593
Hu	-11.6599
▁Houston	-11.66
▁Ras	-11.6602
▁Robin	-11.6604
kara	-11.6605
▁Clark	-11.6607
▁sụt	-11.6608
We	-11.6619
trừ	-11.662
▁Mississippi	-11.6621
▁Hỗ	-11.6623
▁Play	-11.6624
▁Cambridge	-11.6626
OH	-11.6629
▁Hel	-11.6629
▁Rama	-11.6631
sse	-11.6641
▁Lưỡng	-11.6641
Ki	-11.6642
đơn	-11.6644
▁đởm	-11.6647
▁Ích	-11.6647
▁cửu	-11.665
▁CIA	-11.6651
▁ni	-11.6653
▁Steve	-11.6654
SD	-11.6657
úc	-11.6663
mut	-11.6663
/3	-11.6665
py	-11.6671
▁gặt	-11.6673
fil	-11.6675
▁Ry	-11.6677
▁Megachil	-11.6678
dium	-11.6679
▁Qa	-11.6686
ES	-11.6687
▁bú	-11.669
5/	-11.6691
rem	-11.6692
kon	-11.6692
▁Yuri	-11.6693
▁Ei	-11.6693
mbo	-11.6694
ắp	-11.6697
▁ngủi	-11.67
▁khôn	-11.671
▁Tuyền	-11.6714
lig	-11.6717
mmer	-11.6719
▁1981,	-11.6724
▁Rosa	-11.6725
Sự	-11.6731
oku	-11.6731
▁Đăk	-11.6733
▁đạm	-11.6733
▁Sten	-11.6736
ory	-11.6736
▁lạp	-11.6736
▁ôm	-11.6737
▁Lady	-11.6742
▁nghênh	-11.6746
rah	-11.6747
▁Arizona	-11.6748
▁Ngư	-11.6751
▁Kennedy	-11.6753
oba	-11.6757
▁Thôn	-11.6757
neri	-11.6763
▁Gre	-11.6764
▁Senecio	-11.6766
▁mau	-11.6767
Maritime	-11.6767
▁Grant	-11.6767
▁Post	-11.6767
▁Sasuke	-11.6767
▁nhan	-11.6768
▁Mèo	-11.6768
dr	-11.677
▁Road	-11.677
▁Ober	-11.6773
▁Sivas	-11.678
▁manh	-11.6784
▁Girl	-11.6789
ios	-11.6793
▁Down	-11.6798
▁74	-11.6799
Ja	-11.6799
▁Byzantine	-11.68
Baker	-11.6804
▁Shu	-11.6807
AA	-11.6808
Lu	-11.6811
▁1920,	-11.6812
▁Medvedev	-11.6813
late	-11.6815
▁lồi	-11.6818
*	-11.6818
uchi	-11.6823
▁Colorado	-11.6827
carpa	-11.6827
osoma	-11.6828
iformes	-11.6828
NT	-11.6828
▁lột	-11.6836
eth	-11.6836
▁việt	-11.6837
ales	-11.684
ū	-11.6844
rak	-11.6846
▁Xbox	-11.6847
▁oanh	-11.6856
▁túng	-11.6858
▁Jim	-11.6858
▁Santo	-11.6861
▁Navás	-11.6867
▁ad	-11.6867
▁lở	-11.6868
▁Mart	-11.6871
▁100%	-11.6874
▁Gua	-11.6875
▁Piper	-11.6876
▁82	-11.6878
▁Kam	-11.6884
▁Sumatra	-11.6887
▁ru	-11.6895
▁khố	-11.6895
stone	-11.6896
▁Gil	-11.6899
head	-11.6901
top	-11.6907
bot	-11.6909
▁Cle	-11.6911
anga	-11.6911
Fr	-11.6913
aire	-11.6915
▁71	-11.6915
▁Thuyền	-11.6921
ỡ	-11.6926
Âu	-11.693
ior	-11.6931
ánh	-11.6931
▁Miss	-11.6933
▁52%	-11.6938
▁Yak	-11.694
▁http	-11.6941
▁tiệm	-11.6941
▁Mez	-11.6943
▁SM	-11.6947
eva	-11.6948
1993	-11.6949
sor	-11.6951
camp	-11.6953
nea	-11.6954
▁Clinton	-11.6955
▁đẫm	-11.6955
▁diễu	-11.6955
CT	-11.6955
▁Dy	-11.696
▁Thụ	-11.6962
▁Union	-11.6967
CN	-11.6968
▁axít	-11.6969
▁Babylon	-11.6969
SC	-11.6973
Bu	-11.6978
ery	-11.6978
▁vá	-11.6979
ét	-11.6979
Sau	-11.698
▁1957,	-11.6986
▁Aleyrod	-11.6988
GB	-11.6989
▁Namibia	-11.6989
rick	-11.6991
/11/	-11.6992
ctus	-11.6994
▁hông	-11.7008
▁Lôi	-11.7008
▁dán	-11.7012
▁3000	-11.7014
▁Ari	-11.7014
tol	-11.7014
▁Tel	-11.7015
rot	-11.7022
ilia	-11.7023
Andrena	-11.7024
▁yết	-11.7026
pl	-11.7027
Lund	-11.7028
▁Dãy	-11.7029
▁Facebook	-11.703
▁40%	-11.703
▁tà	-11.7031
ần	-11.7036
Thành	-11.7036
▁Tectaria	-11.7037
▁tủy	-11.704
▁Trinidad	-11.7044
▁acid	-11.7045
▁Adams	-11.7046
tính	-11.7049
And	-11.7052
thế	-11.7053
cul	-11.7053
▁Milano	-11.7054
oh	-11.7055
Wa	-11.7057
Ge	-11.7058
1988	-11.7059
bộ	-11.7059
▁Kang	-11.7059
hoạt	-11.7068
bet	-11.7071
Hieracium	-11.7071
Quercus	-11.7071
▁sen	-11.7072
▁1983,	-11.7073
▁Urban	-11.7073
▁Pil	-11.7075
▁Barb	-11.7075
frazioni	-11.7078
▁file	-11.7085
▁vòi	-11.7085
▁Center	-11.7088
▁Dr	-11.7089
▁Pont	-11.709
For	-11.709
▁Len	-11.7091
▁Bry	-11.7092
bản	-11.7094
▁Power	-11.7096
hou	-11.7097
hắc	-11.7101
▁Pal	-11.7111
▁Vel	-11.7112
▁Kẻ	-11.7112
▁Zambia	-11.7113
▁Oh	-11.7115
ches	-11.7117
▁Cruz	-11.7118
▁Hart	-11.7118
▁1800	-11.7124
▁Az	-11.7125
phần	-11.7127
eur	-11.713
HCM	-11.7131
▁87	-11.7131
ever	-11.7132
able	-11.7133
GA	-11.7138
150	-11.7139
▁chớp	-11.7141
ust	-11.7143
▁Lucas	-11.7144
En	-11.7146
thal	-11.7147
dre	-11.7147
PC	-11.7148
▁German	-11.7149
▁78	-11.7151
▁panchayat	-11.7154
cio	-11.7158
hang	-11.7158
III	-11.716
kel	-11.7161
▁logic	-11.7161
▁Tung	-11.7164
yp	-11.7171
▁Ghi	-11.7171
để	-11.7174
▁Fuji	-11.7174
▁Little	-11.7175
▁hăng	-11.7175
▁Hảo	-11.7176
Sp	-11.7176
▁Bãi	-11.7176
ocarpus	-11.7177
rim	-11.7177
kes	-11.7179
etta	-11.7182
▁gra	-11.7184
▁Point	-11.7185
stre	-11.7188
▁Elmidae	-11.7189
iv	-11.719
▁Mars	-11.7193
▁Xanh	-11.7193
▁âu	-11.7195
Ông	-11.7196
▁Not	-11.7197
▁phiền	-11.7199
Kh	-11.7201
▁Đắc	-11.7203
▁1953,	-11.7203
hon	-11.7203
ić	-11.7205
▁Cur	-11.7205
omi	-11.7207
▁cụt	-11.7209
pis	-11.7212
▁sê	-11.7213
Saint	-11.7213
oph	-11.7214
BA	-11.7216
▁Thor	-11.7219
▁Dong	-11.722
acea	-11.722
▁1829	-11.722
eda	-11.722
cana	-11.7225
ifer	-11.7225
▁phiệt	-11.7226
pul	-11.7227
▁Key	-11.7229
opa	-11.7229
▁Khiết	-11.723
mina	-11.723
▁ngoan	-11.7231
bul	-11.7232
▁pi	-11.7235
ique	-11.7236
▁sp	-11.7236
▁1977,	-11.7236
▁Av	-11.7238
Bài	-11.7239
▁Sound	-11.7244
▁thạo	-11.7244
▁Kol	-11.7245
TE	-11.7245
▁Fri	-11.7246
▁Dây	-11.7247
▁bón	-11.7249
▁Good	-11.7256
▁vụn	-11.7257
thực	-11.7258
oy	-11.726
alia	-11.7262
▁Dữ	-11.7265
Nguyễn	-11.7265
cen	-11.7267
use	-11.7268
amba	-11.727
▁1835	-11.7274
▁Truyện	-11.7274
▁VTV	-11.7277
▁Dor	-11.7278
▁Fan	-11.7279
▁rưỡi	-11.7279
▁108	-11.7284
▁cày	-11.7284
▁Shan	-11.7284
ship	-11.7289
▁Bưu	-11.7295
▁98	-11.7296
▁1826	-11.7297
uf	-11.7297
▁Peri	-11.73
SL	-11.73
oe	-11.73
une	-11.7301
▁chuộc	-11.7301
▁Mãi	-11.7301
▁đũa	-11.7308
▁Giấy	-11.7315
▁900	-11.7319
▁côi	-11.732
idia	-11.7322
ses	-11.7326
▁Piedmont	-11.7329
▁Leningrad	-11.7329
▁bạ	-11.7329
▁Thịt	-11.7329
▁dồi	-11.7329
н	-11.733
▁dai	-11.7332
▁tệp	-11.7335
▁Samuel	-11.7336
▁Sankt	-11.7336
▁Somalia	-11.7343
Quốc	-11.7343
▁Best	-11.7345
▁bành	-11.7345
uc	-11.7345
▁khâu	-11.735
owski	-11.7351
0%	-11.7354
▁Platy	-11.7356
census	-11.7357
iri	-11.7362
HO	-11.7366
yon	-11.7367
óng	-11.737
▁chanh	-11.7371
ball	-11.7372
▁1810	-11.7372
▁Moore	-11.7373
Fi	-11.7378
▁vuốt	-11.7378
▁xô	-11.7382
hem	-11.7383
▁nitơ	-11.7385
▁internet	-11.7386
▁Set	-11.739
▁Dryopteri	-11.739
Nếu	-11.739
▁DJ	-11.7392
nz	-11.7395
▁Kyoto	-11.74
▁Tốt	-11.7402
▁Giờ	-11.7404
▁Wittmer	-11.7407
▁chước	-11.7407
▁Pictures	-11.7409
▁Tranh	-11.7409
house	-11.7413
▁ôxy	-11.7414
▁53%	-11.7421
vor	-11.7424
ites	-11.7424
▁Ảnh	-11.7429
▁nạ	-11.743
▁Toà	-11.743
▁Tony	-11.7431
0,	-11.7432
▁Mé	-11.7434
▁Tà	-11.7435
▁Adolf	-11.7435
yō	-11.744
▁ngà	-11.7443
oidea	-11.7449
punctata	-11.7451
▁Cas	-11.7451
▁Bia	-11.7452
▁Ven	-11.7454
core	-11.7454
▁Shaw	-11.7456
Bộ	-11.7456
▁chiêm	-11.7463
optera	-11.7465
iopsis	-11.7472
BC	-11.7472
cke	-11.7477
apa	-11.7483
bil	-11.7485
▁Say	-11.7485
rr	-11.7487
bas	-11.7489
▁Đột	-11.7492
▁tambon	-11.7492
▁mac	-11.7497
/2	-11.75
▁Mak	-11.7501
▁30%	-11.7503
nel	-11.7505
▁Malawi	-11.7507
▁Miami	-11.7508
sko	-11.7509
▁Dụng	-11.7511
▁Clo	-11.7513
▁Apollo	-11.7514
TR	-11.7526
chus	-11.7529
▁Rat	-11.7533
cula	-11.7534
▁Tồn	-11.7538
▁Maine	-11.7538
chel	-11.7541
▁muỗi	-11.7543
ult	-11.7544
oensis	-11.7553
▁Buổ	-11.7554
▁ngoặt	-11.7557
ishi	-11.7557
▁gõ	-11.7558
tham	-11.756
div	-11.7565
▁Cook	-11.7566
▁Ama	-11.7566
▁Engl	-11.7567
м	-11.7568
enko	-11.7568
pol	-11.757
pit	-11.757
shire	-11.757
ines	-11.7573
sul	-11.7575
▁Mara	-11.7577
▁1952,	-11.7582
▁Dra	-11.7586
▁Beach	-11.7587
fish	-11.7589
otis	-11.7592
gawa	-11.7596
▁Reg	-11.76
any	-11.7601
▁Rạch	-11.7602
▁Studio	-11.7602
▁Lea	-11.7605
mé	-11.7605
Á	-11.7607
amo	-11.7609
▁Chuyển	-11.761
▁Luxembourg	-11.7615
▁pre	-11.7615
▁Asia	-11.7616
▁Cross	-11.7617
▁48%	-11.7618
▁Nicaragua	-11.7622
▁Schimmel	-11.7622
amine	-11.7624
▁Bấy	-11.7625
▁Morgan	-11.763
▁Miếu	-11.763
Tri	-11.763
/6	-11.7631
xy	-11.7632
▁Free	-11.7636
▁Cham	-11.7637
▁Cù	-11.7639
nae	-11.7642
▁Buck	-11.7645
MI	-11.7648
phal	-11.765
▁Ngành	-11.7652
▁Horn	-11.7656
rata	-11.7657
▁Heinrich	-11.7659
▁Howard	-11.7659
▁Bạn	-11.7659
ifolius	-11.7664
▁Cla	-11.7665
▁Hamilton	-11.7666
▁nan	-11.7666
Marne	-11.7679
▁Vin	-11.768
vers	-11.7686
▁General	-11.7686
▁1951,	-11.7687
▁Raymond	-11.7688
],	-11.7689
▁mào	-11.769
cord	-11.7693
ě	-11.7695
▁bọt	-11.7698
▁83	-11.7702
▁neutron	-11.7702
▁Had	-11.7703
▁Harrison	-11.7706
sonii	-11.7707
▁Jane	-11.7708
PM	-11.7708
▁Dermestidae	-11.771
▁0,5	-11.771
▁Balkan	-11.7711
▁Chiếu	-11.7711
lem	-11.7712
ỗ	-11.7713
▁Ryan	-11.7714
ardi	-11.7715
horn	-11.7716
IF	-11.7716
▁Crassulaceae	-11.7717
▁Gai	-11.7717
▁metal	-11.7718
山	-11.7724
▁Thới	-11.7724
▁Phe	-11.7725
▁đặn	-11.7725
▁84	-11.7725
anta	-11.7727
ote	-11.7729
▁97	-11.7733
▁vóc	-11.7733
▁ADN	-11.7734
▁Sant	-11.7736
▁Pav	-11.7736
AF	-11.7736
tten	-11.7737
mà	-11.7738
▁Salvador	-11.7739
▁Paraguay	-11.7739
▁thầm	-11.7739
▁August	-11.774
▁Roosevelt	-11.7743
ghi	-11.7749
▁Kunth	-11.7749
▁phồn	-11.7751
Cập	-11.7754
▁Quỳ	-11.776
▁Christopher	-11.7762
nda	-11.7762
PT	-11.7764
▁Bước	-11.7765
▁Mori	-11.7768
▁răm	-11.7769
▁Súng	-11.7772
▁APG	-11.7773
▁Tòng	-11.7778
▁Bus	-11.7781
MC	-11.7782
NĐ	-11.7783
run	-11.7788
hab	-11.7788
▁Hydro	-11.7789
▁hệt	-11.7789
▁liễu	-11.7791
AI	-11.7797
Cô	-11.7797
iva	-11.7799
▁Web	-11.7799
▁Hào	-11.7805
▁Dark	-11.7809
pyr	-11.781
▁Pot	-11.7814
Cambridge	-11.7815
dent	-11.7816
▁nhã	-11.7819
ash	-11.7821
▁Donald	-11.7821
▁bicolor	-11.7821
▁MW	-11.7822
▁1,2	-11.7824
unt	-11.7826
▁loan	-11.7828
ptera	-11.783
Cuộc	-11.7831
▁đè	-11.7832
see	-11.7834
Ru	-11.7835
▁Ngọ	-11.7839
app	-11.7841
▁huân	-11.7843
▁rạch	-11.7845
rom	-11.7846
hei	-11.7846
▁Cấm	-11.7847
▁Mân	-11.7847
▁Strand	-11.7852
▁Bir	-11.7853
▁Tara	-11.7855
iro	-11.7856
ond	-11.7857
文	-11.7857
Giải	-11.7858
▁Ia	-11.7859
US	-11.7861
▁nhát	-11.7865
▁XVIII	-11.7866
▁rét	-11.7867
▁Chinh	-11.7868
/9/	-11.7868
ẩn	-11.7871
Thanh	-11.7873
ien	-11.7874
к	-11.7875
▁Mill	-11.788
▁kiêu	-11.788
▁Friese	-11.7882
▁Jura	-11.7886
▁Napoleon	-11.7887
nensis	-11.7887
yne	-11.7888
▁Heart	-11.7888
▁ob	-11.7895
▁Acacia	-11.7897
▁oán	-11.7898
/7/	-11.7899
thia	-11.7904
▁Khe	-11.7905
▁Kamen	-11.7906
MB	-11.7909
▁Epidendrum	-11.791
dur	-11.7911
bara	-11.7911
▁Your	-11.7913
▁Nhung	-11.7914
mond	-11.7914
▁Call	-11.7924
emia	-11.7926
▁pH	-11.7926
cao	-11.7928
▁Calli	-11.7929
gger	-11.793
/8/	-11.793
áng	-11.793
làm	-11.7931
▁Tetra	-11.7932
lung	-11.7934
Có	-11.7934
▁Lord	-11.7936
bio	-11.7937
dang	-11.794
▁Obama	-11.794
#	-11.7941
▁bẻ	-11.7948
hua	-11.7951
▁Lyon	-11.7951
▁Đồn	-11.7955
▁Đương	-11.7955
▁Domin	-11.7955
▁Mikhail	-11.7962
▁This	-11.7964
▁Intel	-11.7964
▁Potter	-11.7964
▁plan	-11.7967
▁kh	-11.7968
▁Hypo	-11.797
▁tem	-11.797
▁GS	-11.7973
▁nộ	-11.7974
▁Einstein	-11.7974
▁rò	-11.7975
县	-11.7977
▁Manuel	-11.7978
dio	-11.7984
ầu	-11.7989
đồng	-11.799
▁brachy	-11.799
cell	-11.7992
AL	-11.7992
▁Ngữ	-11.7992
▁Jam	-11.7992
lau	-11.7992
▁Khảo	-11.7997
teri	-11.8
▁tăm	-11.8
▁dỗ	-11.8001
▁CCD	-11.8004
▁name	-11.8008
44,	-11.8014
đại	-11.8014
▁Way	-11.8014
▁khan	-11.8018
▁109	-11.8019
ej	-11.8021
▁Sơ	-11.8022
▁Croton	-11.8023
▁Cống	-11.8024
▁thoi	-11.8024
ß	-11.8028
ĩ	-11.803
led	-11.8031
Azur	-11.8033
burn	-11.8033
CI	-11.8034
sion	-11.8035
▁lị	-11.8036
▁Khâu	-11.8038
▁len	-11.8038
pot	-11.8038
áo	-11.804
▁Carol	-11.8041
С	-11.8045
▁biếm	-11.8045
▁Mức	-11.8046
ừng	-11.8048
▁inter	-11.8049
vu	-11.805
▁ISO	-11.8051
gara	-11.8051
Rolling	-11.8052
▁Kì	-11.8057
rian	-11.8058
obi	-11.8058
▁Pyotr	-11.806
▁Iso	-11.8062
gno	-11.8066
▁Queen	-11.8067
nếu	-11.8067
▁tetra	-11.8072
▁Meso	-11.8073
▁Orthotrichaceae	-11.8076
lag	-11.8077
▁Mk	-11.8078
phon	-11.808
▁OS	-11.8082
PP	-11.8083
▁Home	-11.8084
▁khiêm	-11.8085
lineata	-11.8086
▁Phra	-11.8088
arn	-11.8089
_5	-11.809
ž	-11.8091
▁450	-11.8091
rae	-11.8098
ộc	-11.81
▁Silva	-11.81
iki	-11.8101
天	-11.8106
char	-11.8107
▁Haiti	-11.8111
▁Japan	-11.8114
▁Jay	-11.8115
bei	-11.8117
kun	-11.8121
▁ngươi	-11.8122
mil	-11.8122
cast	-11.8122
sberg	-11.8127
▁proton	-11.8128
ulosa	-11.8131
Calais	-11.8131
ast	-11.8132
▁Schwarz	-11.8136
▁căm	-11.8137
▁47%	-11.814
▁Catherine	-11.8144
▁Lucanidae	-11.8144
▁Toronto	-11.8144
▁sảnh	-11.8147
kei	-11.8147
▁Lac	-11.8148
alba	-11.815
mol	-11.815
▁Anthony	-11.8152
asia	-11.8152
jar	-11.8155
IA	-11.8156
về	-11.8158
▁Ralph	-11.8159
▁đả	-11.816
▁Sâm	-11.8163
vùng	-11.8167
▁bẩm	-11.8175
Kim	-11.8179
Clubiona	-11.8182
▁xói	-11.8183
igera	-11.8186
▁François	-11.8186
ocera	-11.8189
▁Sem	-11.8191
▁Tae	-11.8194
▁Carthage	-11.8198
Fa	-11.8198
▁Oxy	-11.82
ẫu	-11.82
▁Berg	-11.8202
sign	-11.8202
▁Sarah	-11.8211
esta	-11.8212
▁Latvia	-11.8213
▁lỡ	-11.8213
tula	-11.8216
▁Arm	-11.8216
▁Rchb	-11.822
▁xảo	-11.8221
áp	-11.8221
▁Eugen	-11.8222
▁0,1	-11.8223
Jo	-11.8223
▁Mir	-11.8225
aka	-11.8227
▁cởi	-11.8229
▁Cốt	-11.8231
ade	-11.8235
opteris	-11.8236
▁Ontario	-11.8236
▁Cole	-11.8237
▁Thùy	-11.8238
ante	-11.8238
lio	-11.8238
mod	-11.824
▁Dực	-11.824
▁phà	-11.8242
cả	-11.8242
ا	-11.8245
▁Russell	-11.8247
mini	-11.8252
trich	-11.8255
▁Provence	-11.8257
ś	-11.8261
▁Warner	-11.8261
Qu	-11.8263
▁Thuỷ	-11.8268
▁uni	-11.8269
▁Nỗ	-11.8269
for	-11.8269
▁Tiger	-11.8272
get	-11.8273
rol	-11.8273
▁Ấp	-11.8275
▁Darwin	-11.8275
▁Mei	-11.828
▁Blu	-11.8283
ứ	-11.8284
sser	-11.8289
1981	-11.829
xo	-11.8292
▁Sw	-11.8294
▁99	-11.8295
▁89	-11.8296
▁Europa	-11.8297
CHDCND	-11.8298
▁Creek	-11.8299
▁Triển	-11.8299
Chr	-11.8302
ường	-11.8305
FA	-11.8306
▁Line	-11.8306
▁Nhái	-11.8306
gần	-11.8307
▁AS	-11.8307
Khi	-11.8311
med	-11.8312
/4/	-11.8313
▁Zu	-11.8313
▁Margaret	-11.8314
Constantinopolis	-11.8314
bury	-11.8314
▁Barbara	-11.8315
▁sanh	-11.8315
worth	-11.8318
å	-11.8321
mae	-11.8322
mori	-11.8323
rac	-11.8328
▁gởi	-11.833
▁Cou	-11.8332
24,	-11.8338
▁Vợ	-11.8338
▁Cứu	-11.8341
ę	-11.8345
Rhin	-11.8346
▁Nhã	-11.8347
nơi	-11.8349
ằng	-11.8349
▁Praha	-11.8351
▁Parthia	-11.8353
shan	-11.8354
▁Marcus	-11.8354
ull	-11.8355
▁chè	-11.8357
ấy	-11.8359
iano	-11.8365
cata	-11.8366
▁Honduras	-11.8369
đi	-11.837
▁Athens	-11.8373
Hampe	-11.8373
chro	-11.8373
▁Eo	-11.8375
beck	-11.8377
Scopula	-11.8377
▁Ae	-11.8382
LC	-11.8385
schi	-11.8387
▁Ok	-11.8388
only	-11.839
ghe	-11.8391
▁Polypodi	-11.8391
phora	-11.8393
▁Sparta	-11.8393
pr	-11.8393
Can	-11.8396
What	-11.8398
ceps	-11.8399
▁Attelabidae	-11.84
▁Ob	-11.8402
▁Rou	-11.8407
trung	-11.8411
▁Bla	-11.8417
▁Alabama	-11.8418
eto	-11.8418
▁Anton	-11.8419
RP	-11.8421
CL	-11.8422
ー	-11.8424
▁Bhutan	-11.8425
▁đắng	-11.8426
bun	-11.8426
nya	-11.843
▁Aragon	-11.8433
nat	-11.8434
▁Gru	-11.844
▁91	-11.8442
Năm	-11.8442
saki	-11.8445
▁thoáng	-11.8447
▁93	-11.8449
▁75%	-11.845
▁vari	-11.8451
▁Cara	-11.8451
▁First	-11.8451
▁mài	-11.8454
www	-11.8455
▁Melbourne	-11.8455
▁hip	-11.8455
▁220	-11.8458
▁Octavius	-11.8463
▁79	-11.8463
gil	-11.8468
▁mạ	-11.8468
▁sam	-11.8469
▁Kastamonu	-11.8471
▁giọt	-11.8479
▁1918,	-11.8479
▁bẩn	-11.8479
tine	-11.8482
▁Sand	-11.8486
úng	-11.8486
▁lau	-11.8491
mana	-11.8493
▁Abraham	-11.8495
alo	-11.8495
▁Wil	-11.8495
iye	-11.8495
hat	-11.8499
▁CN	-11.8499
▁trừu	-11.85
rensis	-11.8504
▁Wars	-11.8504
▁Hell	-11.8504
MG	-11.8506
estra	-11.8507
peri	-11.8509
▁Jose	-11.8512
▁Maya	-11.8513
▁bôi	-11.8514
vol	-11.8515
AG	-11.8516
▁Lấy	-11.8521
Am	-11.8521
▁Bầu	-11.8522
▁Alba	-11.8523
John	-11.8524
CE	-11.8526
▁IP	-11.8527
▁Leo	-11.8532
▁Dream	-11.8534
flu	-11.8534
include	-11.8534
▁Hựu	-11.8534
▁Biến	-11.8535
▁Gran	-11.854
▁Wy	-11.8546
oun	-11.8557
า	-11.8558
▁Janeiro	-11.8558
▁Trở	-11.8559
thor	-11.8559
DI	-11.856
lept	-11.8562
fun	-11.8562
đường	-11.8572
gata	-11.8574
SU	-11.8575
▁lơ	-11.8576
cca	-11.8577
tele	-11.8577
▁Hat	-11.858
▁chọi	-11.8582
ổ	-11.8583
▁Vietnam	-11.8583
▁Làm	-11.8584
ên	-11.8586
▁Blume	-11.8587
kg	-11.859
pri	-11.8594
suýt	-11.8601
▁bỏng	-11.8602
▁Kei	-11.8602
own	-11.8603
▁bóp	-11.8604
uyên	-11.8604
▁Sub	-11.8605
▁pharaon	-11.8606
▁vã	-11.861
1986	-11.8619
▁Mello	-11.862
▁Nhâm	-11.8622
GM	-11.8624
▁hormone	-11.8624
Brachytheciaceae	-11.8625
As	-11.8626
▁Has	-11.863
130	-11.863
sio	-11.8633
▁Team	-11.8636
▁Sái	-11.8636
▁Gordon	-11.8637
MO	-11.8637
▁Carr	-11.8637
1987	-11.8639
▁Suối	-11.864
▁sớ	-11.8641
▁Wol	-11.8642
ọc	-11.8644
▁Fra	-11.8644
▁Now	-11.865
λ	-11.8654
▁lừng	-11.8655
phus	-11.8658
gos	-11.8659
▁92	-11.8665
▁angust	-11.8674
▁novel	-11.8674
▁Titan	-11.8677
▁buồm	-11.8679
anthera	-11.8679
▁Buôn	-11.8679
▁flavo	-11.8681
▁ab	-11.8682
FF	-11.8682
ật	-11.8685
▁nhào	-11.8685
nit	-11.8686
wen	-11.8689
ings	-11.8689
т	-11.8689
maculatus	-11.8692
lak	-11.8694
▁phì	-11.8694
umi	-11.8695
▁FDA	-11.8696
Mor	-11.8696
▁86	-11.8697
▁gene	-11.8699
Hangul	-11.8701
▁3,5	-11.8701
sea	-11.8702
ôi	-11.8703
▁kẹo	-11.8703
▁giục	-11.8703
▁Dragon	-11.8705
nguyên	-11.8708
uni	-11.8711
▁‘	-11.8713
▁hoán	-11.8714
Ri	-11.8714
▁Tát	-11.8714
▁Castro	-11.8716
ete	-11.8719
anna	-11.872
illy	-11.8725
inum	-11.8725
ovo	-11.8726
▁Roll	-11.8727
▁State	-11.8729
▁Sou	-11.8734
ện	-11.8735
▁cưa	-11.8735
▁Lennon	-11.8735
▁tẩm	-11.8736
▁thềm	-11.8736
▁đun	-11.8739
▁Minas	-11.874
press	-11.8743
Saône	-11.8743
MT	-11.8744
▁léo	-11.8744
▁melano	-11.8747
put	-11.8747
rone	-11.8748
zin	-11.875
▁xiêm	-11.8752
Un	-11.8756
▁Bour	-11.8757
▁Dendrobium	-11.876
▁Napoli	-11.8761
MP	-11.8761
▁Sunda	-11.8762
▁Duyệt	-11.8768
▁gieo	-11.8769
uka	-11.877
RO	-11.8773
▁15%	-11.8776
▁Rịa	-11.8776
now	-11.878
ology	-11.878
▁Kas	-11.8786
PD	-11.8786
jer	-11.8786
Cr	-11.8787
tori	-11.8789
▁Carey	-11.8789
▁1500	-11.879
▁jazz	-11.8792
▁Uyển	-11.8793
▁Jacoby	-11.8794
▁Luke	-11.8794
hom	-11.8797
▁diệu	-11.8801
ám	-11.8802
▁càn	-11.8803
cara	-11.8806
ophylla	-11.8808
▁Sm	-11.8809
▁cọp	-11.8811
▁Michel	-11.8814
tự	-11.8816
▁Coenagrionidae	-11.8817
▁Bối	-11.8819
▁Carter	-11.8819
▁Dàn	-11.8822
sac	-11.8827
▁Series	-11.8828
kor	-11.8829
tain	-11.883
ủ	-11.883
yuki	-11.8831
wald	-11.8833
ode	-11.8835
▁Mos	-11.8837
▁hu	-11.8838
Lam	-11.8838
ặng	-11.8839
▁128	-11.884
loch	-11.8841
Tập	-11.8843
oko	-11.8845
ili	-11.8849
Tuy	-11.8849
bank	-11.885
▁dở	-11.8853
pas	-11.8854
▁1806	-11.8855
▁comp	-11.8855
phía	-11.886
▁Miêu	-11.886
▁trọt	-11.8861
àn	-11.8862
%	-11.8862
pala	-11.8863
Chu	-11.8863
▁Fleutiaux	-11.8866
▁Gla	-11.8867
▁IBM	-11.8868
▁Sahara	-11.887
IP	-11.8877
▁Africa	-11.8878
hiro	-11.8879
IT	-11.888
bou	-11.8884
▁Bernard	-11.8887
phiên	-11.8888
▁oxit	-11.8888
▁Mis	-11.8889
▁Alpha	-11.8891
▁cò	-11.8893
▁mùng	-11.8894
▁Woo	-11.8899
abad	-11.8899
vent	-11.8906
▁Nôm	-11.891
ulum	-11.8912
mand	-11.8916
▁Dĩnh	-11.8916
Red	-11.8917
▁127	-11.8917
▁IUCN	-11.8917
▁miên	-11.8918
nova	-11.8918
IN	-11.8919
▁Ō	-11.8921
▁Tokugawa	-11.8924
▁Trans	-11.8925
▁chìa	-11.8925
▁chảo	-11.8927
ăm	-11.8929
▁Cừ	-11.893
▁Mecklenburg	-11.8932
▁Hetero	-11.8932
▁Moscow	-11.8932
▁Thầy	-11.8932
sci	-11.8933
▁Moraceae	-11.8935
▁App	-11.8937
▁nuốt	-11.8941
▁Dys	-11.8941
▁Beau	-11.8942
Văn	-11.8942
Cu	-11.8943
manni	-11.8949
▁Mall	-11.8949
hausen	-11.895
stor	-11.8952
▁Hos	-11.8953
▁Steno	-11.8953
mic	-11.8954
▁mol	-11.8956
cơ	-11.8957
pınar	-11.8957
▁Phêrô	-11.8957
▁Next	-11.8957
pic	-11.8958
▁vờ	-11.8959
tō	-11.896
▁rộn	-11.8961
▁Over	-11.8961
etz	-11.8962
tru	-11.8965
▁bass	-11.8965
176	-11.8967
179	-11.8968
gate	-11.8969
ès	-11.897
vet	-11.897
я	-11.897
▁gracilis	-11.8972
▁Sz	-11.8974
ume	-11.8974
CR	-11.8975
ifrons	-11.8976
▁Sor	-11.8979
▁Dance	-11.8979
tại	-11.8979
board	-11.8982
illi	-11.8984
Gia	-11.8985
della	-11.8986
eana	-11.899
2021	-11.8991
178	-11.8991
oth	-11.8995
▁See	-11.8996
▁Bin	-11.8996
▁Jefferson	-11.9007
Em	-11.9009
▁More	-11.9009
sam	-11.9009
▁Đánh	-11.9011
imi	-11.9013
▁Wikipedia	-11.9015
▁Maxim	-11.9015
▁Platia	-11.9016
vn	-11.9017
eon	-11.902
▁Athena	-11.9021
Fu	-11.9022
uck	-11.9022
vy	-11.9022
int	-11.9025
▁Joan	-11.9026
rh	-11.904
ove	-11.9041
▁Pyr	-11.9042
rib	-11.9043
rug	-11.9043
udi	-11.9045
hình	-11.9046
1/	-11.9049
▁Xinglong	-11.9049
▁bỗng	-11.9049
▁thệ	-11.905
PR	-11.9051
ort	-11.9051
▁Lab	-11.9052
▁Pitt	-11.9054
tier	-11.9055
▁Jason	-11.9056
▁ngạch	-11.9056
Black	-11.9057
▁rapper	-11.9058
▁Rey	-11.9059
▁Dị	-11.9059
▁sỏi	-11.9059
▁xẻ	-11.9061
đối	-11.9062
▁tỉa	-11.9063
stic	-11.9064
Vorpommern	-11.9065
,80%	-11.9067
▁Raj	-11.9073
Pi	-11.9075
▁Gustav	-11.9076
cta	-11.9078
▁190	-11.9083
Wang	-11.9083
mala	-11.9084
▁Matthew	-11.9085
TM	-11.9086
▁Rus	-11.9088
,50%	-11.9091
▁Hindu	-11.9093
▁Santos	-11.9099
lepis	-11.9101
▁Tal	-11.9104
bes	-11.9104
▁đùi	-11.9108
toni	-11.9111
▁đắn	-11.9113
rama	-11.9113
▁nhũ	-11.9114
▁eu	-11.9114
ận	-11.9116
quận	-11.9117
▁Xét	-11.9117
cht	-11.9121
serv	-11.9122
ي	-11.9123
▁Shimoga	-11.9125
▁Bert	-11.9125
▁Bội	-11.9125
ock	-11.9126
▁Ann	-11.9128
р	-11.9135
osia	-11.9139
▁Rang	-11.9145
▁SC	-11.9145
assi	-11.9152
ved	-11.9153
nga	-11.9154
isi	-11.9154
▁AK	-11.9154
▁xay	-11.9158
dos	-11.9159
▁Back	-11.916
▁vả	-11.9167
Syzygium	-11.9167
▁1820	-11.9174
chon	-11.9176
▁Rhône	-11.9177
mili	-11.9178
dea	-11.9178
▁Eury	-11.9179
▁Comp	-11.9179
Hur	-11.9181
▁kìm	-11.9181
▁XV	-11.9181
cách	-11.9185
▁dưa	-11.9187
oto	-11.9189
nius	-11.9189
qa	-11.919
Let	-11.9191
▁dạo	-11.9192
▁lận	-11.9192
▁gục	-11.9193
rand	-11.9195
cat	-11.9197
lúc	-11.9197
▁Cảm	-11.9199
▁đừng	-11.9201
▁HLV	-11.9202
5,5	-11.9207
GR	-11.9208
▁Palearctic	-11.9209
chal	-11.921
hm	-11.9212
ρ	-11.9218
▁INSEE	-11.9218
▁Rod	-11.9219
EN	-11.9219
ingen	-11.9221
▁Press	-11.9223
Per	-11.9224
▁nano	-11.9226
sit	-11.9228
▁Tạo	-11.923
dou	-11.9231
▁Manga	-11.9232
emi	-11.9234
▁phượng	-11.9235
▁chạp	-11.9236
lep	-11.9236
▁Timor	-11.9238
▁kèn	-11.9239
Quảng	-11.924
▁tủ	-11.9243
▁1801	-11.9243
0,0	-11.9246
▁Rwanda	-11.9252
▁Munich	-11.9252
▁Lindl	-11.9252
gio	-11.9254
GP	-11.9258
▁Association	-11.9258
▁Mandya	-11.926
▁Mariana	-11.9262
▁Edo	-11.9263
nai	-11.9263
▁nghiền	-11.9263
wick	-11.9265
▁Uzbekistan	-11.9269
▁Giê	-11.9269
▁Kevin	-11.927
,00%	-11.927
gs	-11.9271
Para	-11.9271
idi	-11.9274
▁ồn	-11.9275
▁thoả	-11.9276
▁Patrick	-11.9278
▁Panzer	-11.9279
6,5	-11.928
▁Rob	-11.9281
Au	-11.9286
▁Nhuận	-11.9286
young	-11.9289
,40%	-11.9291
▁Valley	-11.9293
▁115	-11.9293
leri	-11.9293
,60%	-11.9294
州	-11.9294
▁Stein	-11.9298
,30%	-11.9298
▁Kur	-11.9299
▁sáo	-11.93
dân	-11.9304
cent	-11.931
▁Ukraine	-11.9312
▁MP	-11.9312
▁ballad	-11.9313
б	-11.9313
▁alpha	-11.9315
vil	-11.9317
yeon	-11.9318
▁Greene	-11.9319
Trường	-11.9325
▁Palau	-11.9325
▁Frankfurt	-11.9329
uba	-11.9331
▁oan	-11.9331
▁Luzon	-11.9331
lá	-11.9333
▁Holttum	-11.9338
▁Kham	-11.934
You	-11.9342
▁Naga	-11.9343
dec	-11.9353
pid	-11.9353
▁AU	-11.9354
▁mậu	-11.9357
▁Bánh	-11.9357
▁Uttar	-11.9359
▁Tráng	-11.9365
10,	-11.9365
,10%	-11.9365
▁Light	-11.9367
syn	-11.9367
▁dào	-11.9367
▁Et	-11.9368
▁Roy	-11.9369
dere	-11.9369
▁Trục	-11.9371
▁Guy	-11.9378
tit	-11.9379
lock	-11.938
nagar	-11.938
▁Chư	-11.9384
▁102	-11.9388
cea	-11.9389
,20%	-11.9389
▁Iberia	-11.939
té	-11.9391
omo	-11.9393
250	-11.9394
▁camera	-11.9396
hin	-11.9398
▁Venice	-11.9399
▁Ah	-11.9402
▁94	-11.9402
nol	-11.9403
ridae	-11.9404
▁Sala	-11.9404
ost	-11.9404
▁Xem	-11.9406
▁Beijing	-11.9407
人	-11.9407
▁1812	-11.9407
1982	-11.9411
▁Justin	-11.9412
▁Harris	-11.9414
▁Wayne	-11.9414
roy	-11.9419
dro	-11.942
▁Mach	-11.9421
▁Sparassidae	-11.9424
▁si	-11.9426
▁Ngạc	-11.943
▁Festival	-11.9433
mys	-11.9442
American	-11.9446
kr	-11.9447
▁quạ	-11.9448
▁Ton	-11.9449
tric	-11.945
▁Nhiếp	-11.9451
▁Khôi	-11.9451
▁Hamburg	-11.9451
▁Ted	-11.9455
cina	-11.9455
▁Willis	-11.9456
▁Vincent	-11.9458
bilis	-11.9462
▁hán	-11.9464
thon	-11.9465
ssel	-11.9468
▁Steven	-11.9469
wing	-11.9469
▁Eugenia	-11.9471
▁Timberlake	-11.9477
Rh	-11.948
vas	-11.948
amino	-11.9481
lica	-11.9484
iceps	-11.9485
ν	-11.9485
mma	-11.949
ữ	-11.9492
▁Mũi	-11.9497
▁1821	-11.9497
168	-11.9497
act	-11.9502
mata	-11.9503
▁pyr	-11.9504
▁XVII	-11.9504
▁Dứa	-11.9504
rze	-11.9512
▁lăm	-11.9512
ovi	-11.9513
Hil	-11.9513
lect	-11.9517
1985	-11.9518
▁Fire	-11.9518
dri	-11.9522
▁Ngưu	-11.9524
▁Sto	-11.9524
177	-11.9525
▁ju	-11.9528
▁Fred	-11.9528
mã	-11.9528
AB	-11.9529
▁Thuộc	-11.953
rô	-11.9532
AV	-11.9533
oll	-11.9539
▁nhuệ	-11.9539
▁sập	-11.954
▁Cairo	-11.9543
Conus	-11.9543
▁Weise	-11.9543
kaze	-11.9545
▁xáo	-11.9547
SV	-11.9548
sara	-11.9549
▁Tol	-11.9556
▁Lau	-11.9557
band	-11.9559
mensis	-11.9561
▁Nelson	-11.9565
chẳng	-11.9567
ieri	-11.9568
ON	-11.9568
nell	-11.9568
▁nã	-11.9568
ctor	-11.9569
▁Kuwait	-11.9573
▁Linnaeus	-11.9574
▁Wan	-11.9575
▁Belle	-11.9579
▁Mác	-11.9583
On	-11.9583
leuca	-11.9584
▁Fall	-11.9589
▁Nixon	-11.9591
▁Středočeský	-11.9591
▁bấm	-11.9592
▁Idae	-11.9593
▁Matsu	-11.9593
rium	-11.9594
▁Dạ	-11.9596
▁cúm	-11.9596
▁váy	-11.9596
oon	-11.9598
▁Valencia	-11.96
Mont	-11.9601
▁chày	-11.9602
ucci	-11.9604
stri	-11.9605
hệ	-11.9605
view	-11.9606
▁nham	-11.9608
▁France	-11.961
▁Gin	-11.961
▁thoa	-11.9612
ped	-11.9612
odi	-11.9612
kas	-11.9619
ocephalus	-11.9623
stigma	-11.9624
▁Cự	-11.9624
▁phò	-11.9625
▁Virgin	-11.9625
▁Chryso	-11.9626
▁Pickard	-11.9626
ː	-11.9626
▁Ir	-11.9627
hum	-11.9627
skaya	-11.9628
gne	-11.9632
▁Tán	-11.9634
▁Mou	-11.9636
▁Đang	-11.9637
▁xua	-11.9638
Long	-11.964
gens	-11.9642
ą	-11.9644
Anhalt	-11.9645
▁Gol	-11.9646
▁ghen	-11.9646
llus	-11.9647
▁Leone	-11.9648
340	-11.9649
▁Thang	-11.9649
▁Hun	-11.965
▁mía	-11.9651
▁muôn	-11.9653
▁Non	-11.9653
▁Pholcidae	-11.9653
7,5	-11.9654
Fe	-11.9657
ร	-11.9658
▁Phải	-11.9658
đà	-11.9661
▁Digital	-11.9661
leuc	-11.9663
▁vỗ	-11.9663
▁cằn	-11.9664
OR	-11.9664
▁Mala	-11.9665
gana	-11.9668
yat	-11.9668
ér	-11.967
ison	-11.9671
ngoại	-11.9674
úp	-11.9674
part	-11.9674
▁Hồn	-11.9679
180	-11.9679
▁Tá	-11.968
▁Wat	-11.9681
reg	-11.9685
ι	-11.9689
wy	-11.9689
▁Toản	-11.9689
▁Rồng	-11.9692
Ke	-11.9693
ça	-11.9693
ME	-11.9693
▁Augustus	-11.9694
zii	-11.9695
tto	-11.9696
tino	-11.9698
▁dấy	-11.9699
pura	-11.9699
ồ	-11.97
▁loa	-11.9703
ỵ	-11.9709
▁Pur	-11.971
nah	-11.971
fan	-11.9713
▁Seo	-11.9717
▁Af	-11.9718
witz	-11.9719
hop	-11.9719
text	-11.972
▁Johannes	-11.9721
▁kiếp	-11.9725
▁Siberia	-11.9725
▁Bom	-11.9727
’’	-11.9728
▁Metro	-11.973
ơi	-11.9733
▁giông	-11.9734
mbar	-11.9736
▁Ất	-11.9743
▁Mộng	-11.9744
chiến	-11.9745
Kaiser	-11.9745
Eu	-11.9746
jima	-11.9751
­	-11.9751
▁nhúng	-11.9753
gram	-11.9753
▁Brandenburg	-11.9755
▁Brachy	-11.9756
▁Cú	-11.9756
▁búa	-11.9758
▁1789	-11.9759
▁Brand	-11.9762
▁ngói	-11.9765
iger	-11.9765
▁Novo	-11.9766
Württemberg	-11.977
▁Assyria	-11.977
▁Gerais	-11.977
▁Ts	-11.977
▁Dã	-11.977
▁Cardot	-11.9771
▁cù	-11.9774
▁Đáng	-11.9777
▁McC	-11.9778
▁Fel	-11.9778
の	-11.9779
mai	-11.978
▁toa	-11.9784
ual	-11.9787
▁Book	-11.9787
▁Malpighiaceae	-11.9788
▁nhặt	-11.9788
▁lầu	-11.9788
▁Teodor	-11.9789
▁dance	-11.9793
▁Tái	-11.9794
cir	-11.9795
ε	-11.9797
▁go	-11.9797
▁Fernando	-11.98
[[	-11.9803
▁rập	-11.9805
▁Delhi	-11.9806
▁Nhì	-11.9809
▁Garden	-11.981
▁Pink	-11.9811
pie	-11.9812
▁keo	-11.9813
borg	-11.9813
▁Vy	-11.9815
▁Cucurbitaceae	-11.9815
kaya	-11.9815
Homo	-11.9817
dei	-11.9817
alp	-11.9819
Xysticus	-11.9824
▁Vale	-11.9825
▁but	-11.9825
ogen	-11.9826
Super	-11.9828
▁trá	-11.9828
tern	-11.9836
▁Kom	-11.9836
pter	-11.984
▁Lem	-11.9842
▁Giovanni	-11.9842
opogon	-11.9843
▁Viêm	-11.9843
▁UTC	-11.9844
370	-11.9845
uru	-11.9847
▁Story	-11.9847
▁Britton	-11.9849
urs	-11.985
awa	-11.9851
▁elegans	-11.9851
mari	-11.9851
Đài	-11.9857
Tu	-11.9859
▁Amsterdam	-11.986
ics	-11.9861
morph	-11.9862
▁Genève	-11.9869
EM	-11.9873
▁ngả	-11.9874
中	-11.9878
gni	-11.9879
▁Hermann	-11.9881
▁Hawk	-11.9881
▁urani	-11.9884
media	-11.9885
▁fusc	-11.9886
▁Mysore	-11.9888
tig	-11.9888
▁Kat	-11.989
One	-11.989
▁Golden	-11.9891
▁1937,	-11.9893
▁Cầm	-11.9893
Đường	-11.9893
▁1938,	-11.9895
Bolus	-11.9896
▁lén	-11.9899
▁Mae	-11.9899
▁khiếm	-11.9901
osis	-11.9903
thra	-11.9904
▁thối	-11.9906
▁Lặc	-11.9907
▁Slam	-11.9907
▁nguyền	-11.9908
1954	-11.9909
▁úp	-11.991
л	-11.9911
bourg	-11.9912
▁25%	-11.9913
Quân	-11.9914
Her	-11.9914
▁phẫn	-11.9915
chlor	-11.9919
▁Din	-11.992
gur	-11.9926
How	-11.9927
gle	-11.993
1980	-11.9932
▁±	-11.9932
CV	-11.9934
nii	-11.9935
▁Nh	-11.9938
DM	-11.9939
,70%	-11.9944
▁khao	-11.995
▁Mare	-11.995
▁Uni	-11.9952
Ex	-11.9955
ilis	-11.9963
▁System	-11.9966
▁Thì	-11.9966
▁acut	-11.9966
▁Tuyển	-11.9967
IV	-11.9969
▁Yong	-11.9971
▁Valle	-11.9972
water	-11.9973
▁Voss	-11.9974
▁Tennessee	-11.9974
cock	-11.9975
omma	-11.9975
him	-11.9976
▁ASEAN	-11.9979
▁Juventus	-11.9979
▁lắc	-11.9979
▁Kịch	-11.9982
een	-11.999
ress	-11.9991
▁Tầng	-11.9992
ż	-11.9997
cái	-11.9998
lae	-11.9999
▁Trai	-12
▁Nổi	-12
1972	-12.0004
oria	-12.0005
rm	-12.0006
▁tenui	-12.0006
▁Stockholm	-12.0006
▁Kelly	-12.0008
mba	-12.0009
pogon	-12.0011
▁melan	-12.0016
ر	-12.0016
▁Alt	-12.0019
onic	-12.0021
▁Lind	-12.0025
▁thuyên	-12.0025
ulatus	-12.0032
iel	-12.0033
▁Thấy	-12.0034
▁12%	-12.0036
Whit	-12.0036
▁Fal	-12.0038
▁103	-12.004
1976	-12.0041
,90%	-12.0042
▁Sarawak	-12.0043
▁Hard	-12.0044
▁dơi	-12.0044
▁has	-12.0046
▁Vang	-12.0046
▁Mes	-12.0048
▁Pon	-12.0052
mum	-12.0053
▁mông	-12.0053
▁Samoa	-12.0053
tây	-12.0054
▁Nay	-12.0054
aza	-12.0055
▁Anime	-12.006
▁vectơ	-12.0062
▁Thử	-12.0062
iola	-12.0065
OL	-12.007
xu	-12.0071
▁Philopotamidae	-12.0071
▁Rhein	-12.0073
▁Ö	-12.0075
▁Jacques	-12.0079
uca	-12.0079
section	-12.008
issima	-12.0081
▁Điệp	-12.0082
ình	-12.0083
tae	-12.0084
tom	-12.0086
FI	-12.0087
▁Nadu	-12.0087
▁Gian	-12.0094
▁rufi	-12.0094
ña	-12.0095
suke	-12.0099
▁Weber	-12.01
▁tết	-12.01
▁107	-12.0102
▁Gymn	-12.0103
èo	-12.0104
▁Trải	-12.0105
▁Heidelberg	-12.0108
▁Mini	-12.0112
▁1819	-12.0117
▁thuở	-12.012
▁Campo	-12.0127
▁vắc	-12.0128
▁Venezia	-12.0131
phyll	-12.0134
184	-12.0134
▁Twitter	-12.0136
▁trượng	-12.0136
cola	-12.0137
hạ	-12.014
▁Benjamin	-12.0146
▁heli	-12.0147
Chính	-12.0149
▁ve	-12.015
▁Aden	-12.0153
▁Nhưỡng	-12.0155
▁Hiểu	-12.0156
▁1818	-12.0156
▁dì	-12.0157
SF	-12.0159
▁1805	-12.0163
▁Thorell	-12.0166
▁Nin	-12.0166
asi	-12.0166
sica	-12.0166
▁Age	-12.0175
sley	-12.0176
uan	-12.0177
▁Pel	-12.0182
▁Foundation	-12.0183
▁lẫy	-12.0183
idus	-12.0183
▁Ridl	-12.0186
▁Mario	-12.0191
▁nu	-12.0191
▁nhồi	-12.0193
▁Naka	-12.0193
▁Thìn	-12.0195
Chase	-12.0195
▁đố	-12.0195
▁Tele	-12.0197
▁yến	-12.0197
▁IS	-12.0199
range	-12.0199
tani	-12.0199
▁rạc	-12.02
spor	-12.0202
ein	-12.0203
owo	-12.0204
▁Roth	-12.0205
▁Nees	-12.0206
ller	-12.0213
kia	-12.0215
enus	-12.0217
Zopheridae	-12.0221
▁Phạn	-12.0221
dem	-12.0222
ista	-12.0223
phân	-12.0223
elo	-12.0224
not	-12.0225
▁Bha	-12.0226
▁Nevada	-12.0227
▁Wright	-12.0228
dorf	-12.0228
bang	-12.0229
▁Singles	-12.0229
▁Central	-12.023
▁240	-12.023
PG	-12.023
▁230	-12.0231
Bản	-12.0232
▁Lept	-12.0232
▁Take	-12.0235
meta	-12.0235
mag	-12.0236
LP	-12.0237
ồi	-12.0239
1978	-12.0239
Com	-12.024
▁Nokia	-12.024
▁Two	-12.0241
rel	-12.0242
▁Arn	-12.0242
▁320	-12.0243
▁Linda	-12.0245
▁Arch	-12.0246
rik	-12.0246
▁tru	-12.0249
miya	-12.0249
Peterburg	-12.0252
▁kiêng	-12.0252
▁Maryland	-12.0252
jun	-12.0252
ssen	-12.0253
▁Apo	-12.0255
wat	-12.0255
▁175	-12.0255
г	-12.0256
illon	-12.0256
Điều	-12.0263
▁Ngộ	-12.0264
▁Castel	-12.0265
▁mò	-12.0268
hō	-12.0272
culus	-12.0273
7/	-12.0273
Is	-12.0276
▁Nhằm	-12.0278
▁Krông	-12.0278
marginata	-12.0278
▁lanh	-12.0279
▁Marvel	-12.028
▁his	-12.028
és	-12.0289
▁Rom	-12.0291
▁PS	-12.0293
1979	-12.0294
nước	-12.0294
▁China	-12.0294
▁Phanxicô	-12.0296
▁Stalingrad	-12.0297
rub	-12.03
òng	-12.0302
align	-12.0304
▁góa	-12.0306
▁Erica	-12.0312
bay	-12.0314
▁Nicholas	-12.0315
▁Thâm	-12.0316
▁Rhine	-12.032
emon	-12.0321
▁Luther	-12.0323
安	-12.0325
▁Libellulidae	-12.0325
ár	-12.0325
èn	-12.0329
▁mày	-12.0331
▁0,2	-12.0333
▁Tờ	-12.0333
▁Erzurum	-12.0334
▁Main	-12.0336
▁Nikolai	-12.0337
▁Andy	-12.0339
▁135	-12.0343
▁Limnephil	-12.0344
lys	-12.0346
▁Hạc	-12.0351
▁Dai	-12.0353
▁Yan	-12.0353
▁Selaginella	-12.0354
▁Office	-12.0354
Bar	-12.0356
▁155	-12.0358
sang	-12.036
tiền	-12.0363
▁Yuki	-12.0363
▁cẩm	-12.0363
▁Wo	-12.0367
ễ	-12.0369
fel	-12.037
▁Ltd	-12.0373
▁Houten	-12.0373
▁Lepanth	-12.0376
cine	-12.0376
hir	-12.0378
▁bong	-12.038
▁sưng	-12.038
kka	-12.0381
lab	-12.0383
▁Georg	-12.0384
amide	-12.0385
Aleuro	-12.0387
▁Pr	-12.0392
▁Luận	-12.0393
▁Tuất	-12.0394
▁Cos	-12.0394
▁Fabaceae	-12.0395
▁Cẩn	-12.0396
▁Petro	-12.0398
▁Orange	-12.0399
▁Mut	-12.04
▁Aeg	-12.0401
▁ôxi	-12.0401
▁Theraphosidae	-12.0401
139	-12.0403
▁Fiji	-12.0403
DL	-12.0405
rius	-12.0406
▁Athyriaceae	-12.0411
▁điểu	-12.0411
▁Thuỵ	-12.0412
▁Nương	-12.0412
▁lều	-12.0414
Ng	-12.0417
iti	-12.0419
▁Vas	-12.0419
▁Toại	-12.0421
▁Ever	-12.0422
born	-12.0424
▁165	-12.0424
▁Bahrain	-12.043
▁Himalaya	-12.043
▁Die	-12.0432
▁Nghe	-12.0433
▁210	-12.0433
▁Bros	-12.0434
154	-12.0434
▁Ain	-12.0435
▁Sào	-12.0436
Mon	-12.0436
▁Universal	-12.0438
▁Táo	-12.0439
taria	-12.0439
als	-12.0441
oda	-12.0441
▁Of	-12.0444
▁you	-12.0445
▁Chlor	-12.0445
over	-12.0448
β	-12.0452
▁Kad	-12.0453
▁Oliver	-12.0457
Mer	-12.0458
▁Lắk	-12.0459
mei	-12.0462
tura	-12.0465
nce	-12.0465
▁Tord	-12.0466
▁dặn	-12.0467
cept	-12.047
▁sex	-12.0471
▁chip	-12.0472
IL	-12.0474
zzi	-12.048
▁Shō	-12.0484
Tân	-12.0485
▁chậu	-12.0488
hoe	-12.049
insky	-12.0491
▁1936,	-12.0492
Ai	-12.0494
ute	-12.0497
sina	-12.0498
▁Silla	-12.0498
zio	-12.0498
▁Ngao	-12.0499
▁Dận	-12.05
▁Film	-12.0502
Min	-12.0503
▁Us	-12.0506
188	-12.0508
▁Pokémon	-12.0509
nium	-12.0511
▁Zero	-12.0515
▁Boys	-12.0517
▁trèo	-12.0517
▁á	-12.0522
▁Sphaer	-12.0523
gol	-12.0526
▁Cri	-12.0531
▁blog	-12.0537
▁Manisa	-12.0539
nei	-12.054
▁Opera	-12.0541
▁lít	-12.0541
vul	-12.0542
bie	-12.0542
▁Turner	-12.0543
DR	-12.0544
▁quấn	-12.0546
4/	-12.0547
itch	-12.0552
apo	-12.0552
law	-12.0555
IM	-12.0555
國	-12.0556
▁Airways	-12.0556
▁Ele	-12.0558
ici	-12.0559
▁Đáp	-12.0561
lob	-12.0562
▁McCartney	-12.0562
▁lề	-12.0562
▁Samsun	-12.0563
▁ủi	-12.0565
▁Gyrinidae	-12.0566
▁Ptolemaios	-12.0566
methyl	-12.0566
▁giàn	-12.0566
book	-12.0572
yna	-12.0573
▁Montenegro	-12.0576
▁chưởng	-12.0576
▁Mitchell	-12.0576
Cho	-12.0578
▁khoảnh	-12.0584
▁Tamerlan	-12.0585
amphoe	-12.0586
oki	-12.0588
idea	-12.0592
▁Act	-12.0593
nema	-12.0593
▁Dur	-12.0595
phia	-12.0595
▁Lima	-12.0596
▁ủ	-12.0596
▁Hunter	-12.0597
bell	-12.0598
Hedw	-12.0598
ĐT	-12.06
▁Chủng	-12.0604
▁5000	-12.0609
▁Tab	-12.0611
ы	-12.0613
▁Vis	-12.0613
م	-12.0614
120	-12.0615
▁Belgaum	-12.0615
▁iPhone	-12.0615
▁gram	-12.0616
wall	-12.0616
MF	-12.0616
HA	-12.0618
▁Mono	-12.0618
▁Dixon	-12.0619
▁Amphi	-12.062
1984	-12.062
▁Dis	-12.0624
▁phô	-12.0626
11,	-12.0626
▁fo	-12.0627
_6	-12.0628
▁báng	-12.0635
dina	-12.0636
▁Dĩ	-12.0636
Jones	-12.0637
▁Tay	-12.0637
▁diệp	-12.0637
stadt	-12.0639
ambo	-12.064
pher	-12.064
▁Món	-12.0641
siana	-12.0641
CD	-12.0642
▁Pet	-12.0642
▁Yama	-12.0645
kho	-12.0646
anthe	-12.0648
▁Dry	-12.0649
HT	-12.0651
anahalli	-12.0652
né	-12.0652
tuy	-12.0652
▁106	-12.0653
▁Poli	-12.0656
▁dis	-12.0657
▁Rin	-12.066
lach	-12.0663
tun	-12.0665
▁chê	-12.0665
▁Holt	-12.0668
rose	-12.0668
▁Bridge	-12.0669
bey	-12.067
ping	-12.0671
▁Thoại	-12.0674
▁Đống	-12.0675
▁sồi	-12.0675
▁1802	-12.0675
rana	-12.0683
arch	-12.0684
▁1/3	-12.0684
▁Lon	-12.0686
ssi	-12.0687
bli	-12.0689
ridge	-12.0691
TF	-12.0691
▁giêng	-12.0694
▁foot	-12.0696
187	-12.0697
▁Eun	-12.07
▁Ranh	-12.0701
Oliv	-12.0701
hí	-12.0702
RE	-12.0702
▁Ernest	-12.0703
▁loãng	-12.0704
▁1823	-12.0704
ière	-12.0705
▁Hills	-12.0711
Hán	-12.0713
Syrphidae	-12.0713
unda	-12.0714
right	-12.0718
▁Chưởng	-12.0723
▁tiễu	-12.0723
dic	-12.0728
▁Ốc	-12.0733
▁Fraser	-12.0733
▁Kay	-12.0734
wil	-12.0739
Ber	-12.074
SH	-12.0743
SM	-12.0743
▁toan	-12.0749
▁Tru	-12.0749
sty	-12.0749
▁Abdul	-12.075
▁RNA	-12.075
ally	-12.0751
gie	-12.0752
▁Micr	-12.0752
▁vựng	-12.0753
▁rốt	-12.0753
▁Nakhon	-12.0754
▁Bran	-12.0754
▁Mancha	-12.0755
▁Mul	-12.0756
▁Arena	-12.0758
PO	-12.076
▁Soul	-12.076
▁rap	-12.076
lix	-12.0762
▁145	-12.0762
▁Bog	-12.077
Shi	-12.0771
▁Dylan	-12.0773
▁xuồng	-12.0774
▁Franch	-12.0778
▁Boris	-12.078
ạch	-12.078
▁Malaya	-12.0782
▁Gomphidae	-12.0783
asco	-12.0783
▁Greenland	-12.0785
fre	-12.0786
▁mega	-12.0787
tio	-12.0792
▁ròng	-12.0796
~	-12.08
▁Esp	-12.08
▁Baly	-12.08
▁kẹp	-12.0803
nicus	-12.0804
▁Dol	-12.0805
ophorus	-12.0808
ée	-12.0809
odont	-12.081
▁Cru	-12.081
World	-12.0811
▁Biết	-12.0814
▁Turk	-12.0819
▁Istanbul	-12.0823
đầu	-12.0823
▁rộ	-12.0825
▁Glo	-12.0829
lun	-12.0829
Ban	-12.083
dine	-12.0836
Nu	-12.084
arra	-12.0841
▁Franco	-12.0841
▁thâu	-12.0843
▁Ankara	-12.0848
ại	-12.0848
144	-12.0849
sper	-12.0849
▁nguội	-12.0853
▁Đuôi	-12.0853
▁Project	-12.0853
▁barangay	-12.0854
▁Porto	-12.0855
▁Dean	-12.0856
▁Won	-12.0859
thyr	-12.086
lich	-12.0861
▁ibn	-12.0861
▁Ono	-12.0861
ovsky	-12.0861
rup	-12.0862
▁Hiroshi	-12.0862
iso	-12.0863
▁Society	-12.0863
▁Nhược	-12.0863
mato	-12.0863
thay	-12.0864
giống	-12.0868
▁vệt	-12.0869
▁hốc	-12.0873
▁vọt	-12.0873
tera	-12.0873
▁Thám	-12.0873
yra	-12.0874
×	-12.0874
ean	-12.0876
▁Hugo	-12.0877
vid	-12.0877
rate	-12.0879
rma	-12.088
ial	-12.0881
mara	-12.0884
▁sục	-12.0885
▁1917,	-12.0889
ạc	-12.0889
hid	-12.089
▁phao	-12.089
▁Kro	-12.089
▁Pie	-12.089
▁Newcastle	-12.0893
Mey	-12.0894
▁Gabon	-12.0894
idine	-12.0895
▁Chưa	-12.0896
▁platy	-12.0898
▁Mueang	-12.0899
SN	-12.0901
▁Bosnia	-12.0903
▁Vốn	-12.0904
▁Gö	-12.0905
▁Oai	-12.0906
vit	-12.0907
lee	-12.0909
bos	-12.091
▁Tức	-12.091
oper	-12.0914
▁Gilbert	-12.0918
▁pound	-12.0919
EF	-12.0919
noi	-12.0922
Thần	-12.0923
▁Trạng	-12.0923
▁ngu	-12.0923
▁Nhượng	-12.0923
▁Songs	-12.0925
▁Chao	-12.0927
box	-12.0929
▁Graham	-12.0934
plat	-12.0939
lice	-12.0939
mera	-12.0941
▁ray	-12.0943
hot	-12.0943
▁ngạo	-12.0944
DO	-12.0944
▁Stanley	-12.0944
▁Calvin	-12.0945
▁Xử	-12.0946
1946	-12.0946
nhạc	-12.0947
rista	-12.0948
́	-12.0954
▁Ulithi	-12.0954
Tetragnatha	-12.0954
▁Brit	-12.0956
▁tụy	-12.0956
▁Hiro	-12.0958
quan	-12.0961
▁Leptodactylidae	-12.0964
▁Charlotte	-12.0964
▁đúp	-12.0964
▁Dio	-12.0964
▁Tiều	-12.0965
▁nanh	-12.0968
▁Aki	-12.0972
▁Kun	-12.0972
vern	-12.0972
Torr	-12.0973
1,1	-12.0974
cation	-12.0975
▁Diels	-12.0975
cl	-12.0975
▁Xác	-12.0976
▁Voi	-12.0977
arm	-12.0977
rap	-12.0978
▁CPU	-12.0978
buri	-12.098
▁Got	-12.0981
hwa	-12.0981
▁Warszawa	-12.0984
▁Lạnh	-12.0985
hart	-12.0985
▁Bìm	-12.0988
▁Chín	-12.0989
▁chồn	-12.0991
▁Evans	-12.0993
▁Pia	-12.0993
erg	-12.0998
▁Gam	-12.0998
ND	-12.1003
▁anti	-12.1003
1968	-12.1004
ē	-12.1004
▁lõm	-12.1004
▁Dậu	-12.1006
cid	-12.1006
Command	-12.1009
▁bơ	-12.101
▁1919,	-12.1011
Blake	-12.1012
▁liêng	-12.1014
·	-12.1015
▁Salvia	-12.1015
etto	-12.1016
▁Sci	-12.1018
toria	-12.102
▁chốn	-12.1022
▁cacbonat	-12.1022
▁Gaul	-12.1023
arum	-12.1023
cala	-12.1023
troph	-12.1024
▁Çorum	-12.1025
ơn	-12.1026
▁Jimmy	-12.1029
thông	-12.103
▁Lou	-12.1031
▁Dick	-12.1031
▁152	-12.1034
hydro	-12.1035
▁Miguel	-12.1035
▁Seattle	-12.1035
▁Churchill	-12.1035
Molophilus	-12.1036
HS	-12.104
lik	-12.1041
▁Marco	-12.1042
bry	-12.1043
▁hypo	-12.1044
giá	-12.1047
lü	-12.1048
dge	-12.1048
1983	-12.105
hae	-12.1052
1977	-12.1054
▁Kosovo	-12.1055
mate	-12.1057
▁Kê	-12.1058
▁Sab	-12.1061
▁gã	-12.1061
▁nụ	-12.1066
▁ngỗng	-12.1066
▁Cameron	-12.1066
▁Quắn	-12.1066
▁1803	-12.1068
▁Nara	-12.1072
▁hẻm	-12.1076
▁gạt	-12.1076
▁Murray	-12.1076
▁Gy	-12.1078
sulf	-12.1079
▁phách	-12.1079
bị	-12.1079
vision	-12.108
▁1817	-12.108
bai	-12.1082
▁Nash	-12.1084
▁Py	-12.1085
▁Stelis	-12.1087
▁diều	-12.1089
▁Tý	-12.1092
rock	-12.1092
boat	-12.1093
ói	-12.1094
under	-12.1096
iyah	-12.1098
▁Vậy	-12.1098
pun	-12.1099
Nó	-12.11
▁Nham	-12.1102
TH	-12.1102
▁Già	-12.1104
ejeunea	-12.1107
SR	-12.1112
▁chưng	-12.1112
▁Watson	-12.1113
dle	-12.1115
â	-12.1115
Tình	-12.1116
▁que	-12.1116
osi	-12.1117
▁Stewart	-12.1117
▁Lar	-12.1118
rod	-12.1119
▁chén	-12.1119
phys	-12.1119
▁photon	-12.112
▁Engel	-12.1121
inter	-12.1122
▁Earth	-12.1124
roll	-12.1128
▁Giêng	-12.1131
▁TVB	-12.1134
oga	-12.1134
▁Bis	-12.1135
ude	-12.1135
VA	-12.1135
▁1775	-12.1139
▁Chăn	-12.1142
gramma	-12.1143
氏	-12.1148
ester	-12.1148
nidae	-12.115
cki	-12.1158
▁THPT	-12.1158
▁Suốt	-12.116
EA	-12.1161
▁3;	-12.1162
▁Bolshevik	-12.1163
9/	-12.1164
▁trệ	-12.1165
▁minor	-12.1165
Chen	-12.1168
▁Arts	-12.1168
mosa	-12.1168
municipal	-12.1169
1973	-12.1171
oul	-12.1172
▁hoi	-12.1172
▁Bohemia	-12.1173
Lịch	-12.1173
type	-12.1176
igny	-12.1177
▁Choi	-12.1178
▁rơm	-12.118
▁Nặc	-12.118
▁style	-12.118
▁Bismarck	-12.1184
▁126	-12.1185
▁−	-12.1186
▁Acanth	-12.1188
hee	-12.1189
▁Leopold	-12.1189
zz	-12.1192
pera	-12.1194
kos	-12.1195
eux	-12.1199
▁Sailor	-12.12
anica	-12.1201
tei	-12.1203
▁Bỉnh	-12.1206
PL	-12.1207
eiro	-12.1209
▁Balıkesir	-12.121
▁Spears	-12.121
▁bìm	-12.1211
▁Hoắc	-12.1211
▁Bella	-12.1218
▁Đán	-12.1219
▁Eli	-12.1219
▁Embrik	-12.1221
rita	-12.1221
▁Melan	-12.1227
main	-12.123
bir	-12.123
uti	-12.123
▁kình	-12.1232
▁Š	-12.1235
bla	-12.1235
Par	-12.1235
đôi	-12.1235
1965	-12.1236
▁Hap	-12.1237
NP	-12.1241
▁Eriocaulaceae	-12.1242
uria	-12.1242
▁Kurt	-12.1242
eme	-12.1246
DB	-12.125
cup	-12.125
▁1815	-12.1251
▁Bul	-12.1251
Kunth	-12.1252
▁Cyathea	-12.1252
▁Yasu	-12.1252
▁Fabricius	-12.1252
▁Zodariidae	-12.1252
В	-12.1252
▁104	-12.1255
phone	-12.1256
▁Bồng	-12.1261
▁Charente	-12.1262
ło	-12.1263
▁Đời	-12.1264
morpha	-12.1266
ass	-12.1267
▁André	-12.1267
▁Water	-12.1267
Top	-12.1268
▁nọ	-12.1269
ẫn	-12.127
▁Crypt	-12.127
′	-12.1273
▁Lit	-12.1274
▁Mùi	-12.1275
▁lộng	-12.1276
▁Steyerm	-12.1278
game	-12.128
gala	-12.128
τ	-12.1283
kami	-12.1284
ự	-12.1285
Hiệp	-12.1287
▁Quay	-12.1287
▁chryso	-12.1288
alus	-12.129
▁hetero	-12.1291
▁Goth	-12.1294
▁Fed	-12.1295
▁Hợi	-12.1295
▁Copa	-12.1298
nico	-12.1299
icia	-12.13
▁Mata	-12.13
▁Luna	-12.13
▁Kos	-12.1302
▁hổng	-12.1302
Xem	-12.1306
▁Empire	-12.1306
▁AFC	-12.1306
tepe	-12.1307
olin	-12.1308
rena	-12.1308
2019	-12.131
hyun	-12.1311
itis	-12.1317
▁Sanh	-12.1319
Taylor	-12.1321
ault	-12.1323
▁Lev	-12.1324
/4	-12.1325
▁Fairmaire	-12.1325
К	-12.1325
▁Đèo	-12.1326
▁Thuột	-12.1326
tius	-12.1327
aspis	-12.1327
aster	-12.1328
▁Caribbean	-12.1328
Time	-12.1328
▁Que	-12.1329
▁Hách	-12.133
▁chui	-12.1333
meri	-12.1334
meth	-12.1335
Broth	-12.1336
▁ABC	-12.1339
CB	-12.1339
tics	-12.1341
▁Vancouver	-12.1346
tation	-12.1346
fasciatus	-12.1347
▁Ec	-12.1348
lly	-12.1349
▁Gan	-12.1349
quet	-12.135
RAM	-12.1352
▁Bass	-12.1352
▁khốn	-12.1353
maru	-12.1353
▁Florence	-12.1357
▁Loạt	-12.1357
▁Quyên	-12.1358
lene	-12.1359
▁Cặp	-12.1359
Mazz	-12.1361
tổng	-12.1362
▁Pad	-12.1363
▁1935,	-12.1363
ère	-12.1366
▁trói	-12.1368
▁Jae	-12.1368
Arc	-12.137
hờ	-12.137
plan	-12.1372
▁kệ	-12.1376
▁Chùm	-12.1378
▁Firmino	-12.1378
▁Gibraltar	-12.1378
▁Tetragnathidae	-12.1378
kat	-12.1378
▁lim	-12.1379
HC	-12.138
▁barb	-12.138
vào	-12.138
▁Fair	-12.138
▁Oman	-12.1381
ór	-12.1382
▁đốn	-12.1382
Lý	-12.1384
▁Vegas	-12.1386
abi	-12.1387
▁Đúng	-12.1389
▁Denis	-12.139
▁Core	-12.1392
bha	-12.1395
▁1914,	-12.1395
▁Hae	-12.1398
▁buông	-12.1398
▁Beck	-12.1398
▁Habsburg	-12.1399
▁Tể	-12.14
ān	-12.1402
endorf	-12.1403
▁Bật	-12.1403
▁280	-12.1404
notus	-12.1404
LS	-12.1407
ign	-12.1409
▁Budapest	-12.141
▁Chikmagalur	-12.141
▁Tottenham	-12.141
eder	-12.1416
/2015	-12.1418
ời	-12.1419
▁ngoạn	-12.142
Colo	-12.1421
▁nến	-12.1422
eve	-12.1423
▁chù	-12.1425
▁Phyllo	-12.1428
169	-12.1428
isch	-12.1428
ving	-12.1429
▁Mobile	-12.143
▁Nong	-12.1431
ịch	-12.1431
ς	-12.1431
Nik	-12.1431
▁Đéc	-12.1431
▁Od	-12.1433
▁rạng	-12.1434
▁260	-12.1436
aud	-12.1436
▁Sche	-12.1437
bru	-12.1439
ậu	-12.1439
▁Gala	-12.1442
Hải	-12.1442
▁Singh	-12.1444
Bailey	-12.1444
▁Champa	-12.1445
▁Mr	-12.1445
PLA	-12.1448
Leitão	-12.1452
ann	-12.1453
▁Thỏa	-12.1453
lom	-12.1453
ffer	-12.1454
235	-12.1455
dō	-12.1456
▁gamma	-12.1457
loba	-12.146
▁Bond	-12.146
Đây	-12.1463
Yamato	-12.1463
cut	-12.1463
▁xavan	-12.1464
▁hít	-12.1464
▁iOS	-12.1465
159	-12.1467
▁Newport	-12.1469
▁Basil	-12.1471
Hol	-12.1473
▁Cândid	-12.1474
ethyl	-12.1474
ẩu	-12.1477
leyi	-12.1479
bella	-12.1481
▁Mod	-12.1483
yt	-12.1485
oke	-12.1486
Thế	-12.1486
▁Louisiana	-12.1487
anthes	-12.1489
ych	-12.149
uel	-12.149
aco	-12.149
▁gom	-12.1491
▁Acr	-12.1492
oderus	-12.1492
hydr	-12.1494
市	-12.1495
▁Mauritius	-12.1495
▁Đứng	-12.1495
rine	-12.1496
hall	-12.1497
PI	-12.1498
ắm	-12.1499
ính	-12.1501
▁doạ	-12.1502
و	-12.1506
▁Kap	-12.1506
Lê	-12.1509
Poaceae	-12.151
▁Kali	-12.1511
▁Bundesliga	-12.1516
elin	-12.1517
pil	-12.1517
wei	-12.1518
cet	-12.152
Nees	-12.1526
▁Pit	-12.1526
▁Gekkonidae	-12.1527
▁vãn	-12.1529
▁μ	-12.153
sius	-12.1534
▁11%	-12.1534
▁chèn	-12.1536
▁nại	-12.154
ỏi	-12.154
▁Page	-12.1541
FL	-12.1542
▁Hè	-12.1544
▁giòn	-12.1544
▁Sco	-12.1544
vai	-12.1546
DE	-12.1546
ated	-12.1548
▁Nebraska	-12.1549
▁vẹt	-12.1549
rri	-12.155
▁Wer	-12.1551
▁~	-12.1552
polis	-12.1552
Med	-12.1558
mela	-12.1559
158	-12.1564
iens	-12.1565
alla	-12.157
▁nhẹn	-12.1573
work	-12.1574
giải	-12.1576
cuộc	-12.1581
850	-12.1582
Berg	-12.1586
▁Dru	-12.1588
lyn	-12.159
She	-12.159
▁Turridae	-12.1592
▁1814	-12.1593
▁Force	-12.1593
▁not	-12.1594
▁Rafael	-12.1603
▁Thompson	-12.1603
ová	-12.1607
gis	-12.1607
▁Pak	-12.1611
Thunb	-12.1614
▁Hắn	-12.1621
▁bạt	-12.1622
Born	-12.1622
▁Phàn	-12.1622
cephala	-12.1622
▁Danube	-12.1624
▁náu	-12.1625
▁Nhữ	-12.1625
▁prae	-12.1626
ml	-12.1628
▁Petr	-12.1629
181	-12.163
▁Leuc	-12.163
rec	-12.1632
Ham	-12.1632
101	-12.1638
▁điềm	-12.164
5°	-12.1641
▁Cast	-12.1641
pilus	-12.1641
RI	-12.1642
▁toạ	-12.1642
▁Uông	-12.1645
world	-12.1646
▁chầu	-12.1646
▁Julia	-12.1648
▁Caroline	-12.1649
kể	-12.165
pent	-12.1653
▁Chin	-12.1654
apura	-12.1655
Rubiaceae	-12.1657
▁Pear	-12.1658
▁Vary	-12.1661
▁Ant	-12.1661
dha	-12.1663
orn	-12.1664
gam	-12.1664
▁hiđrô	-12.1665
之	-12.1667
▁gươm	-12.1668
▁Lib	-12.1669
erra	-12.167
▁Hân	-12.1672
Rich	-12.1673
▁1822	-12.1676
cık	-12.1676
▁Warren	-12.1676
▁Wii	-12.1676
▁Sắt	-12.1676
nhóm	-12.1678
yev	-12.168
▁Knight	-12.168
▁Ngã	-12.1682
TI	-12.1683
2,3	-12.1683
▁Doraemon	-12.169
▁1804	-12.1693
tian	-12.1695
▁2:	-12.1697
▁1788	-12.1697
武	-12.17
▁Barneby	-12.17
▁Geotrupidae	-12.17
▁Run	-12.17
poli	-12.1703
▁0,3	-12.1704
ario	-12.1704
sema	-12.1706
▁sải	-12.1706
lang	-12.1709
▁đấm	-12.1712
▁xót	-12.1712
▁Lò	-12.1717
▁Yoo	-12.172
▁Niedersachsen	-12.1722
▁Trợ	-12.1723
▁Quê	-12.1723
tag	-12.1727
geri	-12.1729
▁rốn	-12.1732
zone	-12.1734
▁Gay	-12.1734
▁ngắt	-12.1734
ulo	-12.1737
oco	-12.174
bằng	-12.174
rê	-12.1743
元	-12.1744
▁Versailles	-12.1744
Jeffrey	-12.1745
evi	-12.1745
tium	-12.1747
BO	-12.1747
▁chót	-12.1751
▁Fighter	-12.1755
▁niệu	-12.1756
▁Dro	-12.1761
▁Colle	-12.1764
▁Charlie	-12.1764
lop	-12.1765
妃	-12.1766
»	-12.1766
▁Mordellistena	-12.1766
???	-12.1766
play	-12.1767
Wi	-12.1768
▁Mass	-12.177
▁rubri	-12.1772
anth	-12.1773
▁Lie	-12.1775
uto	-12.1776
vị	-12.1777
▁liêu	-12.1778
▁thớt	-12.1779
gai	-12.1781
guer	-12.1782
▁111	-12.1784
▁146	-12.1784
на	-12.1786
chem	-12.1786
Đồng	-12.1787
▁bra	-12.1787
▁mắng	-12.1789
▁nhở	-12.1789
▁vấp	-12.179
▁α	-12.179
etia	-12.1792
▁Robinson	-12.1793
chrys	-12.1796
▁Ost	-12.1798
▁Pers	-12.1798
isto	-12.18
▁Corn	-12.1804
▁cọc	-12.1804
▁Pass	-12.1808
▁Nàng	-12.1809
Thời	-12.1811
▁Cyrus	-12.1812
inensis	-12.1813
rz	-12.1813
▁→	-12.1814
itt	-12.1817
▁Cleopatra	-12.1818
ilo	-12.1818
▁Elaphogloss	-12.1818
▁Gulbarga	-12.1821
▁nghẽn	-12.1821
▁Andes	-12.1821
▁Khoái	-12.1822
▁Nhiên	-12.1823
▁cover	-12.1824
▁Erik	-12.1825
TN	-12.1832
ب	-12.1832
▁quỵ	-12.1832
▁Guyana	-12.1834
▁Busan	-12.1834
▁Anura	-12.184
naga	-12.1841
saka	-12.1842
ates	-12.1845
cco	-12.1852
▁Gio	-12.1855
▁cạo	-12.1856
TW	-12.1858
ović	-12.186
▁Cyn	-12.1861
▁Kre	-12.1862
tie	-12.1863
diol	-12.1864
▁13%	-12.1865
▁Tuệ	-12.1867
▁Torre	-12.1868
▁Bala	-12.187
psi	-12.1871
▁Susan	-12.1874
▁Hispanic	-12.1877
▁Johannesburg	-12.1877
hỉ	-12.1877
▁Jeff	-12.1877
ương	-12.188
▁Bil	-12.1881
▁Kit	-12.1882
Sal	-12.1886
vre	-12.1889
sche	-12.1889
▁soi	-12.189
Vua	-12.1892
▁Hou	-12.1893
pina	-12.1894
▁Sym	-12.1896
▁Band	-12.1898
▁rỗi	-12.1899
▁lướt	-12.1899
thus	-12.19
holm	-12.1901
oti	-12.1903
niger	-12.1904
▁Gui	-12.1906
▁Bud	-12.1907
▁Austin	-12.1911
▁Sofia	-12.1911
▁Reitter	-12.1911
▁Sid	-12.1912
▁bã	-12.1913
▁Cối	-12.1913
▁Bull	-12.1915
leg	-12.1916
Tra	-12.1921
▁lốc	-12.1923
mad	-12.1924
1969	-12.1925
▁đu	-12.1926
Williams	-12.1926
roi	-12.1927
lut	-12.1928
lata	-12.193
▁England	-12.1932
▁Cổng	-12.1932
166	-12.1932
▁Reagan	-12.1933
▁nhĩ	-12.1933
rán	-12.1933
MD	-12.1934
GS	-12.1937
▁1813	-12.1938
rill	-12.1939
chrom	-12.1939
ocarpa	-12.1942
▁Tốn	-12.1942
▁Copenhagen	-12.1944
kura	-12.1944
▁Lot	-12.1946
▁Chun	-12.1948
▁Jang	-12.1952
明	-12.1955
▁Helen	-12.1955
▁luộc	-12.1955
▁Moselle	-12.1955
Germain	-12.1956
Tháng	-12.1959
▁Iron	-12.1961
▁dạt	-12.1966
▁thiếc	-12.1966
cm	-12.1966
evo	-12.1967
▁Isaac	-12.1967
tập	-12.1968
▁Metz	-12.1968
▁Master	-12.1968
RF	-12.1968
Thu	-12.1971
ôm	-12.1972
▁Met	-12.1975
deridae	-12.1977
▁Phyllanthus	-12.1977
▁Sửu	-12.1978
yria	-12.1978
▁also	-12.1984
▁Yokohama	-12.1989
8/	-12.1989
110	-12.1989
▁Đê	-12.199
▁phàn	-12.1992
HP	-12.1992
▁SEA	-12.1993
Schlt	-12.1996
▁Kurd	-12.1999
▁Nhiễm	-12.2
▁nhụy	-12.2
▁atro	-12.2001
tiana	-12.2001
▁Def	-12.2003
ede	-12.2005
Han	-12.2006
mac	-12.2007
▁Aguilera	-12.2011
▁Sihanouk	-12.2011
▁Saipan	-12.2012
▁thóc	-12.2013
▁Bat	-12.2015
race	-12.2016
▁Konya	-12.2017
▁Dae	-12.2017
▁1758	-12.2018
▁65%	-12.2018
rant	-12.2021
els	-12.2021
kur	-12.2022
▁Io	-12.2024
▁Allium	-12.2025
290	-12.2028
censis	-12.2029
rida	-12.203
hira	-12.2031
310	-12.2031
vie	-12.2036
enta	-12.2036
256	-12.2037
omorpha	-12.2038
▁Dead	-12.2038
▁Cali	-12.2038
coma	-12.2042
▁Phys	-12.2045
▁Tiễn	-12.2046
▁USA	-12.2046
▁Archi	-12.2047
lap	-12.2047
▁Afro	-12.2048
▁Nhai	-12.2049
dentata	-12.205
hàng	-12.2051
tive	-12.2053
167	-12.2054
▁Montana	-12.2054
▁AT	-12.2055
▁lepto	-12.2055
costa	-12.2055
▁Kentucky	-12.2056
х	-12.2056
▁Madison	-12.2056
vittata	-12.2057
▁1%	-12.2057
lini	-12.2058
▁Von	-12.2059
▁Ravenna	-12.2059
▁Ib	-12.2061
aru	-12.2062
▁Pachy	-12.2062
▁chích	-12.2064
▁Global	-12.2065
▁Liber	-12.2065
▁Liberia	-12.2066
lling	-12.2066
▁1:	-12.2067
▁Sher	-12.2069
say	-12.2071
▁Eb	-12.2076
▁Atlanta	-12.2076
▁Sherman	-12.208
mannii	-12.2081
▁vol	-12.2081
▁TS	-12.2082
▁new	-12.2082
yd	-12.2084
Tiểu	-12.2084
▁Chúc	-12.2086
▁270	-12.2087
Khu	-12.2088
▁Nes	-12.2089
▁Ăn	-12.209
mbi	-12.2091
wang	-12.2097
▁Kō	-12.2098
BB	-12.2098
Hoffm	-12.2099
▁Manhattan	-12.2102
▁Thỏ	-12.2104
▁CEO	-12.2104
ün	-12.2105
▁HTV	-12.2111
π	-12.2113
Sw	-12.2115
onis	-12.2116
sino	-12.2116
▁54%	-12.2117
bridge	-12.2118
bad	-12.2119
▁Dendro	-12.2119
mbe	-12.2121
▁Trừ	-12.2122
▁Kent	-12.2127
▁Hua	-12.2128
▁Julian	-12.2129
Hạ	-12.2129
ép	-12.213
น	-12.213
ề	-12.2133
太	-12.2136
rito	-12.2137
▁4,5	-12.2138
code	-12.214
fus	-12.2141
FT	-12.2142
▁Amar	-12.2145
▁Navarre	-12.2147
▁fulv	-12.215
▁hé	-12.2153
▁Kru	-12.2153
▁nản	-12.2155
ặc	-12.2155
南	-12.2157
▁113	-12.2159
▁Harms	-12.2159
▁Cour	-12.216
▁Ficus	-12.216
▁Hokkaidō	-12.2162
104	-12.2164
Pl	-12.2164
▁Sầm	-12.2166
thesaban	-12.217
Oxyopes	-12.217
▁Takahashi	-12.217
oso	-12.2172
1,5	-12.2173
Bình	-12.2174
ộ	-12.2174
dera	-12.2174
rella	-12.2175
▁Vir	-12.2175
▁Austro	-12.2176
frag	-12.2176
lax	-12.2177
▁have	-12.2177
▁nad	-12.2181
ο	-12.2181
background	-12.2182
▁Cry	-12.2182
▁lọ	-12.2183
muban	-12.2183
dula	-12.2184
149	-12.2185
then	-12.2185
▁Moldenke	-12.2186
▁1,6	-12.2186
sdorf	-12.219
▁Rech	-12.219
lt	-12.2191
strict	-12.2192
▁Ramesses	-12.2193
▁iTunes	-12.2193
▁Cannes	-12.2196
▁Silesia	-12.22
▁Thüringen	-12.2202
▁Rhodes	-12.2202
▁hop	-12.2203
▁0,7	-12.2203
▁Moldova	-12.2204
▁Nur	-12.2205
lev	-12.2205
down	-12.2211
liên	-12.2213
wai	-12.2214
▁750	-12.2214
▁112	-12.2216
▁cước	-12.2217
Trần	-12.2222
Vương	-12.2223
▁Ichneumon	-12.2225
ỷ	-12.2227
soma	-12.2227
Anthurium	-12.2227
з	-12.2228
▁nitrat	-12.2228
▁xế	-12.2233
bius	-12.2239
▁Pyrénées	-12.2239
▁lửng	-12.2239
▁nhuyễn	-12.2239
▁Hookeriaceae	-12.2239
tov	-12.2239
nhân	-12.224
▁Movie	-12.224
byte	-12.224
Men	-12.2242
▁nga	-12.2242
▁Metal	-12.2243
stu	-12.2244
▁1,4	-12.2246
ст	-12.2247
Kinh	-12.225
2,6	-12.225
▁Seleukos	-12.2251
▁ráo	-12.2251
▁chẵn	-12.2252
esti	-12.2252
▁Under	-12.2252
NI	-12.2253
▁Trừng	-12.2253
thel	-12.2254
Gr	-12.2255
cr	-12.2257
vac	-12.2259
▁Beat	-12.2261
stel	-12.2261
▁Space	-12.2262
▁Jonathan	-12.2262
loph	-12.2268
▁Kla	-12.2268
▁Kala	-12.2269
▁Kel	-12.227
▁óc	-12.227
phila	-12.2273
▁post	-12.2273
▁trân	-12.2275
▁vất	-12.2276
aldo	-12.2277
▁hét	-12.228
tem	-12.2282
album	-12.2284
▁5%	-12.2284
Never	-12.2285
▁Grove	-12.2287
cken	-12.229
ра	-12.229
blo	-12.2291
ender	-12.2294
▁Pru	-12.2296
ket	-12.2296
▁vùi	-12.2297
▁Blackburn	-12.2297
scher	-12.2298
▁hột	-12.2299
ente	-12.2299
160	-12.23
sman	-12.2302
Thi	-12.2305
inda	-12.2307
luk	-12.2307
tara	-12.2308
▁Nobita	-12.2308
▁cholesterol	-12.2308
▁Thận	-12.2309
▁Chẩn	-12.2309
White	-12.2311
lug	-12.2311
ffe	-12.2312
▁Tem	-12.2312
but	-12.2315
ổi	-12.2316
▁Cyclo	-12.2319
宗	-12.232
▁Og	-12.2323
▁Steel	-12.2325
Mac	-12.2328
▁atri	-12.2329
▁Vịt	-12.2331
fal	-12.2331
ə	-12.2332
▁Trâu	-12.2332
▁Four	-12.2333
dah	-12.2334
Nga	-12.2335
▁Pax	-12.2337
poda	-12.2341
▁1,8	-12.2343
▁Rain	-12.2343
区	-12.2343
▁Hope	-12.2343
▁trũng	-12.2343
▁tía	-12.2344
vic	-12.2348
▁Ronaldo	-12.2348
▁There	-12.235
ạt	-12.2351
▁Emma	-12.2351
lf	-12.2352
▁Axit	-12.2353
▁Chau	-12.2353
Neo	-12.2354
dz	-12.2354
德	-12.2355
▁Scot	-12.2355
ầy	-12.236
▁Idol	-12.2361
jō	-12.2361
▁Cis	-12.2361
Nghệ	-12.2363
öl	-12.2364
dưới	-12.2365
achi	-12.2365
tec	-12.2366
▁vướng	-12.2367
sung	-12.2369
▁Tasmania	-12.2369
▁Oz	-12.2371
Pu	-12.2371
nut	-12.2374
vat	-12.2374
grad	-12.2375
GI	-12.2376
▁Prince	-12.2377
lex	-12.238
▁Amy	-12.238
andro	-12.2381
/8	-12.2382
TTg	-12.2385
yong	-12.2385
uki	-12.2391
this	-12.2392
atsu	-12.2393
lensis	-12.2394
▁Bee	-12.2395
sana	-12.2396
▁Trù	-12.2397
zza	-12.2397
igo	-12.2399
lur	-12.24
lita	-12.24
▁Ao	-12.2402
▁Bot	-12.2403
▁Albums	-12.2405
▁Marcel	-12.2406
FS	-12.2407
xen	-12.241
▁khiên	-12.2414
gonia	-12.2414
163	-12.2414
Thượng	-12.2415
▁cre	-12.2415
egalov	-12.2415
list	-12.2418
ẳng	-12.2422
▁Wel	-12.2423
hip	-12.2425
eros	-12.2425
hydroxy	-12.2425
▁Rihanna	-12.2425
П	-12.2425
▁Explorer	-12.2425
▁Quyển	-12.2426
Hồng	-12.2433
▁Raja	-12.2434
agh	-12.2436
▁Brad	-12.2436
▁Peperomia	-12.2437
▁Pedley	-12.2437
▁tẩu	-12.2437
▁Cơn	-12.2438
It	-12.2441
ando	-12.2441
ñ	-12.2443
▁Sports	-12.2443
▁1816	-12.2445
ogo	-12.2447
▁clip	-12.2447
Enterprise	-12.2447
▁pan	-12.2448
Garonne	-12.2449
essa	-12.245
▁Owen	-12.2451
▁Phóng	-12.2454
▁mor	-12.2454
▁Fun	-12.2455
▁Forest	-12.2457
Besch	-12.2459
ン	-12.246
▁Trãi	-12.2461
jung	-12.2462
Natal	-12.2463
▁Wor	-12.2464
▁Củ	-12.2464
êu	-12.2465
▁Hide	-12.2466
▁Grace	-12.2467
▁64,	-12.2467
▁Màn	-12.2468
Die	-12.2469
ush	-12.247
γ	-12.2472
▁trỗi	-12.2472
1970	-12.2473
mul	-12.2476
obo	-12.2476
rii	-12.2477
uồng	-12.2478
▁mác	-12.2478
etes	-12.2479
▁Western	-12.2479
▁Hyper	-12.248
▁Oklahoma	-12.2484
▁Burundi	-12.2484
inii	-12.2486
▁Pier	-12.2487
▁phiện	-12.2487
Yu	-12.2489
▁Ichi	-12.2491
▁That	-12.2491
rn	-12.2492
▁Trel	-12.2492
▁SK	-12.2493
▁Law	-12.2494
▁Fon	-12.2495
▁Diyarbakır	-12.2496
lade	-12.2496
▁hen	-12.2496
lk	-12.2497
▁Sương	-12.25
▁Tag	-12.2502
▁118	-12.2505
▁Điệu	-12.2508
▁Women	-12.2508
▁Vienna	-12.2508
▁Zhu	-12.2511
kina	-12.2511
▁Kn	-12.2518
▁Animation	-12.252
▁Alberto	-12.252
ostoma	-12.252
▁Quỷ	-12.2522
▁116	-12.2524
▁Emilia	-12.2524
▁Card	-12.2524
ẩm	-12.2525
▁Dominica	-12.2526
taka	-12.2527
dreadnought	-12.2531
▁sộ	-12.2532
▁Oka	-12.2534
endo	-12.2536
tata	-12.2537
qi	-12.2537
loma	-12.2538
▁Nguy	-12.2538
▁Soo	-12.2541
▁117	-12.2542
enne	-12.2542
▁Bân	-12.2542
▁122	-12.2542
Hai	-12.2542
▁Hemerobi	-12.2543
▁Yokosuka	-12.2543
cs	-12.2545
độ	-12.2547
▁logo	-12.2548
▁Lay	-12.2549
som	-12.2557
440	-12.2557
Cav	-12.2557
185	-12.2558
dum	-12.2559
2,8	-12.2559
420	-12.256
kins	-12.2561
450	-12.2562
▁%	-12.2563
cae	-12.2564
▁estrogen	-12.2567
▁Hunt	-12.2567
▁gầm	-12.2568
Ver	-12.257
▁Putin	-12.257
▁then	-12.2572
▁thêu	-12.2572
▁Bali	-12.2575
▁studio	-12.2579
▁Italy	-12.2581
rb	-12.2584
bac	-12.2584
Cộng	-12.2588
▁1798	-12.2588
gri	-12.2589
trick	-12.259
ốn	-12.2591
▁Pul	-12.2598
▁</	-12.2602
▁Gel	-12.2602
▁1792	-12.2603
▁Blake	-12.2603
▁Bứa	-12.2605
▁Wonder	-12.2605
usta	-12.2606
kết	-12.2608
BP	-12.261
1974	-12.261
_7	-12.2612
▁Amaurobiidae	-12.2615
rosa	-12.2615
▁Utah	-12.2616
▁AIDS	-12.2616
Stephani	-12.2619
▁Gió	-12.262
▁Palm	-12.2622
ài	-12.2622
dda	-12.2623
▁Hốt	-12.2624
▁Wind	-12.2624
phosphate	-12.2627
▁Mid	-12.263
lou	-12.2631
▁Chiang	-12.2632
▁Kazu	-12.2634
WA	-12.2634
1967	-12.2634
1971	-12.2639
▁Athletic	-12.2639
▁Nepticulidae	-12.2639
▁Toshi	-12.2639
▁Zhang	-12.264
ool	-12.2641
▁epi	-12.2641
▁1933,	-12.2642
▁vác	-12.2643
loc	-12.2644
pyg	-12.2645
thứ	-12.2646
▁Cám	-12.2648
▁Khuông	-12.2648
neura	-12.265
▁Chamberlin	-12.2651
rax	-12.2651
▁Philippos	-12.2652
▁Philippine	-12.2652
▁Ring	-12.2656
▁Philippe	-12.2661
lah	-12.2662
ن	-12.2663
105	-12.2663
▁ninja	-12.2663
▁Stro	-12.2663
lier	-12.2665
▁1929,	-12.2666
▁cols	-12.2666
phin	-12.2667
▁Đổi	-12.2668
ệp	-12.267
▁Holland	-12.2671
▁live	-12.2672
▁Glen	-12.2673
▁und	-12.2675
Art	-12.2676
▁Zhukov	-12.2676
phis	-12.2677
mail	-12.2678
ispa	-12.2678
vô	-12.2679
▁qui	-12.268
pteris	-12.268
opteryx	-12.268
▁Nên	-12.2682
bắt	-12.2683
hoa	-12.2684
Hồ	-12.2685
Music	-12.2687
▁which	-12.2687
▁Nhậm	-12.2688
▁Acro	-12.2689
▁Christina	-12.2689
▁Hưu	-12.269
▁Birmingham	-12.269
Bad	-12.2691
▁Dấu	-12.2692
▁Aba	-12.2694
▁Mountain	-12.2699
▁ghê	-12.2699
data	-12.27
etus	-12.2703
▁123	-12.2705
▁rufo	-12.2705
▁Ronald	-12.2706
▁Prot	-12.2706
hành	-12.271
▁Thomson	-12.2711
365	-12.2712
RM	-12.2716
isse	-12.2716
/2009	-12.2718
hof	-12.2718
imus	-12.272
ãi	-12.2722
▁Cooper	-12.2723
▁Nghề	-12.2723
edi	-12.2723
ер	-12.2726
thes	-12.2726
rell	-12.273
▁Child	-12.2735
rō	-12.2735
▁Fissidentaceae	-12.2735
▁Jennifer	-12.2735
▁Ardisia	-12.2735
▁Airbus	-12.2736
▁Hin	-12.2737
elii	-12.2738
EL	-12.2742
▁Bursa	-12.2743
▁Laura	-12.2744
ń	-12.2745
▁Turkmenistan	-12.2747
▁noãn	-12.2748
sông	-12.2748
▁loét	-12.2749
inch	-12.2751
▁Niger	-12.2752
ậy	-12.2754
▁dollar	-12.2755
acantha	-12.2755
▁Necker	-12.2756
uge	-12.2758
▁Selys	-12.2762
▁tuồng	-12.2762
▁Brothers	-12.2763
Wu	-12.2765
▁Chuyện	-12.2766
▁Kobe	-12.2766
att	-12.2767
LE	-12.2768
pos	-12.2768
▁Link	-12.2768
▁Gir	-12.2768
320	-12.2769
▁Hôm	-12.277
▁xo	-12.2771
yū	-12.2772
▁Edition	-12.2772
▁Lycidae	-12.2772
195	-12.2773
▁Tell	-12.2775
▁Vic	-12.2778
▁franc	-12.2778
ters	-12.278
▁Comics	-12.278
bl	-12.2781
pô	-12.2781
bek	-12.2782
ego	-12.2783
三	-12.2784
▁Fujiwara	-12.2784
▁Burkina	-12.2784
▁Galicia	-12.2784
▁uất	-12.2785
▁Oda	-12.2787
formula	-12.2788
▁FM	-12.2789
▁Zen	-12.2789
▁Sóng	-12.279
▁Proto	-12.2792
khan	-12.2794
tất	-12.2794
Morton	-12.2795
▁Hebrew	-12.2796
▁Blechnaceae	-12.2796
▁Casa	-12.2797
▁Eucalyptus	-12.2797
189	-12.2797
▁147	-12.2798
▁lợp	-12.2798
▁méo	-12.2799
yun	-12.2799
▁SBS	-12.2804
▁Billy	-12.2805
▁Loa	-12.2806
lepid	-12.2807
▁Manche	-12.2808
mất	-12.2809
▁1,3	-12.2809
▁sấm	-12.2811
ч	-12.2812
▁Marg	-12.2813
Legend	-12.2813
Phổ	-12.2813
glo	-12.2814
cilla	-12.2814
1964	-12.2814
màu	-12.2816
▁Gur	-12.2816
PV	-12.2819
rce	-12.282
▁Euxoa	-12.282
▁né	-12.2822
ize	-12.2823
gers	-12.2824
erus	-12.2827
tini	-12.2827
▁Nicolas	-12.2829
▁Abe	-12.283
▁Kawa	-12.2831
▁Ptero	-12.2838
yen	-12.284
Habenaria	-12.2845
▁Pterolophi	-12.2845
wel	-12.2847
aeus	-12.2848
than	-12.285
nitz	-12.2853
tat	-12.2856
ượng	-12.2856
▁Loranthaceae	-12.2857
nalis	-12.2861
▁Braun	-12.2863
▁Indi	-12.2863
Break	-12.2864
▁Hát	-12.2865
Ư	-12.2869
▁Suzuki	-12.287
stedt	-12.2871
ễn	-12.2873
▁Court	-12.2874
dit	-12.2875
thị	-12.2877
▁Faso	-12.2877
kam	-12.2877
quốc	-12.288
toides	-12.2881
▁mồng	-12.2882
▁Botswana	-12.2882
▁Ưu	-12.2882
▁Giọ	-12.2884
front	-12.2885
▁Theodor	-12.2886
uổi	-12.2886
▁Zeus	-12.2888
▁Punjab	-12.2891
Che	-12.2893
▁Dennstaedtia	-12.2894
▁Monroe	-12.2894
▁Ocean	-12.2898
cino	-12.2898
hra	-12.2903
nig	-12.2905
▁Garay	-12.2911
640	-12.2911
▁Tội	-12.2913
yoshi	-12.2915
stria	-12.2915
anza	-12.2917
hạng	-12.2917
▁Montgomery	-12.2919
▁Newfoundland	-12.2919
▁Puy	-12.2925
3,6	-12.2925
▁Lopho	-12.2925
face	-12.2926
▁Carlo	-12.2927
Short	-12.2931
▁Hudson	-12.2931
▁Delta	-12.2933
center	-12.2934
▁Dật	-12.2934
▁Ble	-12.2935
▁Mắt	-12.2938
▁end	-12.2938
GE	-12.2943
▁Caledonia	-12.2943
Gra	-12.2948
Về	-12.2949
chev	-12.2951
▁nhớt	-12.2958
▁Andrea	-12.2959
opsyche	-12.296
Blume	-12.296
enti	-12.2962
Luc	-12.2962
Perry	-12.2962
▁Honda	-12.2965
▁tua	-12.2966
Ad	-12.2966
▁Kid	-12.2967
▁Campania	-12.2969
khov	-12.2969
zawa	-12.2971
▁Ward	-12.2972
275	-12.2974
Watson	-12.2975
▁Latino	-12.2975
ipa	-12.2978
odendron	-12.2978
▁lute	-12.2979
West	-12.2979
uku	-12.298
spinosa	-12.298
▁Bristol	-12.2981
▁Harold	-12.2981
mie	-12.2982
▁Nas	-12.2982
▁húy	-12.2982
cop	-12.2983
ife	-12.2984
Salix	-12.2984
▁giò	-12.2985
Ya	-12.2986
▁flo	-12.2987
Micro	-12.2987
ứng	-12.299
▁Cau	-12.2991
▁xú	-12.2992
▁Kitt	-12.2993
▁Bonaparte	-12.2993
▁Rommel	-12.2993
▁liềm	-12.2993
▁Bosna	-12.2993
edo	-12.2994
trix	-12.2997
tens	-12.2998
NK	-12.2999
tif	-12.3002
noides	-12.3002
spec	-12.3002
2,7	-12.3002
▁hoả	-12.3004
hea	-12.3004
▁Ác	-12.3005
mena	-12.3005
▁Connecticut	-12.3005
dh	-12.3007
▁Thé	-12.3007
▁Rosen	-12.3009
oca	-12.3009
glu	-12.301
▁lờ	-12.3011
▁tốp	-12.3013
▁Pala	-12.3014
▁132	-12.3015
▁Rap	-12.3016
560	-12.3016
▁Ryu	-12.3023
erin	-12.3024
Bos	-12.3026
350	-12.3027
▁Mitsu	-12.3028
sử	-12.3034
tner	-12.3035
shū	-12.3036
204	-12.3037
▁Kum	-12.3037
rima	-12.3038
Har	-12.3042
rất	-12.3043
▁Ayutthaya	-12.3043
▁Cichlidae	-12.3043
▁Cricetidae	-12.3043
▁Mozart	-12.3043
Rchb	-12.3044
▁sô	-12.3045
1963	-12.3046
garh	-12.3049
punctatus	-12.3049
▁Lối	-12.305
ware	-12.3053
Ste	-12.3054
bah	-12.3054
▁Campbell	-12.3055
▁Champ	-12.3058
sonia	-12.3058
àng	-12.3061
sic	-12.3064
ño	-12.3065
▁Um	-12.3065
bana	-12.3066
sher	-12.307
stal	-12.3072
rest	-12.3073
động	-12.3075
▁Rem	-12.3075
▁cám	-12.3076
▁Collins	-12.3077
khe	-12.3078
▁Mans	-12.3079
▁Mount	-12.3081
▁sầu	-12.3082
▁Sỹ	-12.3083
▁Phấn	-12.3083
▁steno	-12.3086
LL	-12.3087
▁1808	-12.3088
đông	-12.309
▁Panther	-12.3092
ảm	-12.3093
▁Monaco	-12.3094
inella	-12.3096
uh	-12.3097
▁Stefan	-12.3097
▁Serra	-12.3099
238	-12.3099
_8	-12.3099
ialis	-12.3101
▁Ep	-12.3102
▁Koz	-12.3105
▁hủ	-12.3105
testosterone	-12.3105
▁phỉ	-12.3106
▁Petersburg	-12.3106
▁Form	-12.3108
▁1932,	-12.3108
▁Joel	-12.311
gami	-12.3112
▁Ig	-12.3112
▁Đồi	-12.3112
Mông	-12.3113
▁Đo	-12.3113
Ý	-12.3113
ảnh	-12.3115
saurus	-12.3116
▁phật	-12.3118
life	-12.3119
▁nấp	-12.3119
▁Tokat	-12.3122
tris	-12.3125
Human	-12.3128
▁steroid	-12.313
▁Idlib	-12.3131
▁Woodsiaceae	-12.3131
▁Ernst	-12.3131
▁Fil	-12.3132
▁sò	-12.3133
onensis	-12.3134
▁CM	-12.3136
▁Hylae	-12.3137
▁«	-12.3139
▁xantho	-12.314
chiếm	-12.3143
▁Đấu	-12.3144
dt	-12.3144
▁Net	-12.3144
▁chăng	-12.3145
▁Terry	-12.3146
É	-12.3147
▁nhí	-12.3148
▁Ortho	-12.3153
▁Passalidae	-12.3156
▁Ahmed	-12.3156
är	-12.3156
▁Bey	-12.3157
8,5	-12.3158
▁Chester	-12.3158
Sweet	-12.3158
▁*	-12.3158
has	-12.316
▁Tỉ	-12.316
▁Kou	-12.3161
▁Phí	-12.3162
▁Major	-12.3163
nhũ	-12.3163
430	-12.3164
Chủ	-12.3165
ophilus	-12.3168
▁LeConte	-12.3169
▁Sebastian	-12.3169
yma	-12.3169
▁Like	-12.3171
▁Luang	-12.3172
▁Marne	-12.3173
▁choàng	-12.3173
▁Mão	-12.3175
▁Kir	-12.3177
▁Lombard	-12.3179
collis	-12.3181
dell	-12.3181
▁TNHH	-12.3181
▁Georges	-12.3182
Ab	-12.3182
▁Tatar	-12.3184
▁Isa	-12.3186
▁búp	-12.3186
Pri	-12.3188
▁1807	-12.3188
IR	-12.3189
▁XP	-12.3192
Theo	-12.3192
▁Peters	-12.3193
▁Bửu	-12.3194
nice	-12.3194
د	-12.3194
hana	-12.3194
mund	-12.3199
đến	-12.32
oste	-12.3201
▁Khoan	-12.3202
▁Ian	-12.3203
hand	-12.3204
kie	-12.3205
▁Gad	-12.3206
▁138	-12.3206
А	-12.3207
▁Tajikistan	-12.3207
▁nới	-12.3207
eki	-12.3208
▁Hippo	-12.3209
toma	-12.321
▁Stevens	-12.321
▁super	-12.3212
▁chóp	-12.3213
▁Rub	-12.3216
1966	-12.3217
▁cúc	-12.3217
tech	-12.3217
EX	-12.322
cou	-12.3221
Nhân	-12.3225
▁Xeno	-12.3228
▁Aristo	-12.3229
kẻ	-12.323
BR	-12.3233
boy	-12.3233
iner	-12.3234
▁Tomo	-12.3235
vus	-12.3238
▁Tou	-12.3239
▁ja	-12.3239
esh	-12.324
▁Xí	-12.324
▁Calvados	-12.3245
▁Keyserling	-12.3245
▁Palermo	-12.3245
▁Maurice	-12.3245
▁Ưng	-12.3245
ather	-12.3246
GC	-12.3246
Queen	-12.3246
▁australis	-12.3246
▁Geneva	-12.3246
Hop	-12.3247
▁Stu	-12.3248
igne	-12.325
Đạo	-12.3254
3,2	-12.3255
▁vượn	-12.3255
▁tỏi	-12.3255
▁Nacional	-12.3257
▁Pérez	-12.3257
▁0,8	-12.3258
entin	-12.3263
▁Crypto	-12.3264
▁cau	-12.3267
rog	-12.3268
rach	-12.3269
ebe	-12.3272
ovice	-12.3272
▁Fro	-12.3277
maria	-12.3277
kuma	-12.3278
▁Rei	-12.3279
▁Avi	-12.3279
3,4	-12.3282
fla	-12.3285
▁1934,	-12.3285
▁Death	-12.3286
lone	-12.3288
rab	-12.329
▁cưng	-12.3291
▁Elst	-12.3292
▁Dion	-12.3293
Lindl	-12.3295
epi	-12.3295
▁Tech	-12.3296
▁Midway	-12.3296
osperma	-12.3297
▁Emmy	-12.3299
▁Works	-12.3303
BT	-12.3303
▁Science	-12.3305
ен	-12.3307
▁143	-12.3309
▁vứt	-12.3309
▁Raw	-12.3309
2016,	-12.3309
nhiều	-12.3311
▁Bach	-12.3311
▁747	-12.3312
▁Pascal	-12.3313
▁Winter	-12.3314
▁Cảo	-12.3315
▁Just	-12.3316
▁Plan	-12.3318
alta	-12.3318
Cy	-12.3319
▁Grimmiaceae	-12.3322
Grand	-12.3325
▁Mora	-12.3327
▁Jima	-12.333
▁Johnny	-12.333
▁Generation	-12.3332
▁Trâm	-12.3335
auer	-12.3337
▁huyệt	-12.334
σ	-12.3347
▁sá	-12.3348
oideae	-12.3349
▁137	-12.3349
▁Bow	-12.3349
▁Store	-12.3352
1950	-12.3355
ná	-12.3355
▁trọ	-12.3356
obius	-12.3358
660	-12.3358
call	-12.3359
▁Vành	-12.3359
nau	-12.3359
▁khỏa	-12.336
dry	-12.3361
ids	-12.3362
▁Rural	-12.3362
antis	-12.3363
▁mẫn	-12.3363
▁Tarn	-12.3365
ược	-12.3368
Ind	-12.337
▁TH	-12.3372
▁Khủng	-12.3373
▁Ale	-12.3374
▁114	-12.3377
Doctor	-12.3378
▁Bông	-12.3382
▁Som	-12.3383
▁Spir	-12.3384
Ju	-12.3386
▁Chitradurga	-12.3386
▁Plagiochilaceae	-12.3386
Olios	-12.3387
▁đàng	-12.3389
ellia	-12.3389
▁162	-12.339
▁ngỏ	-12.339
▁Gene	-12.3391
cincta	-12.3392
VP	-12.3392
▁tụt	-12.3394
spe	-12.3394
NQ	-12.3398
劉	-12.3399
▁Square	-12.3399
love	-12.34
▁ben	-12.3402
/7	-12.3402
thr	-12.3404
▁Yi	-12.3405
▁Helio	-12.3408
▁Geo	-12.3411
▁Jakarta	-12.3412
▁Laboissiere	-12.3412
▁Magazine	-12.3412
▁Leonard	-12.3413
▁trỏ	-12.3413
▁lách	-12.3413
Jungermanniaceae	-12.3413
ors	-12.3414
▁Daryl	-12.3414
▁Thebes	-12.3414
▁Silver	-12.3415
▁Last	-12.3415
▁ngào	-12.3422
Camus	-12.3423
kul	-12.3423
▁Kraków	-12.3425
▁Melanot	-12.3425
EP	-12.3425
▁trêu	-12.3426
Savoie	-12.3426
ột	-12.3426
Alto	-12.3428
▁133	-12.3429
▁Vista	-12.3429
▁Gang	-12.3432
ury	-12.3432
ốp	-12.3433
talis	-12.3435
▁Maz	-12.3437
▁Mercury	-12.3438
đốt	-12.344
Gardner	-12.344
▁Fran	-12.3441
▁Glenn	-12.3442
FR	-12.3447
▁Rhyacophilidae	-12.3451
▁Marseille	-12.3451
▁dẹt	-12.3451
điểm	-12.3453
▁thuôn	-12.3457
▁Parker	-12.3457
tựa	-12.3458
ören	-12.3458
rc	-12.3461
▁Verde	-12.3463
bà	-12.3463
song	-12.3465
vec	-12.3466
▁Portland	-12.3467
phor	-12.3467
WS	-12.347
▁Kant	-12.3472
sed	-12.3476
woo	-12.3476
3,7	-12.3476
rha	-12.3476
▁Commelinaceae	-12.3477
▁Solanum	-12.3477
rna	-12.3478
▁Phoenix	-12.3479
▁Ami	-12.348
▁golf	-12.348
dii	-12.3481
▁quark	-12.3481
ough	-12.3483
Lời	-12.3484
▁Centr	-12.3484
▁punct	-12.3487
▁46%	-12.3488
MIT	-12.3488
▁Magic	-12.349
234	-12.3491
▁Om	-12.3492
olone	-12.3492
cam	-12.3495
▁Head	-12.3497
aq	-12.3498
fusca	-12.3499
ambi	-12.35
bata	-12.3501
commune	-12.3503
▁Antioch	-12.3503
▁Rec	-12.3504
▁Hiroshima	-12.3505
▁Liệu	-12.3505
phantes	-12.3506
▁1,7	-12.3509
onium	-12.3511
tions	-12.3512
ếu	-12.3512
▁Korea	-12.3513
peptide	-12.3516
Philodromus	-12.3516
▁Limited	-12.3516
▁affinis	-12.3516
Dysdera	-12.3516
▁Saxony	-12.3516
▁run	-12.3518
fri	-12.352
angensis	-12.3522
▁Lep	-12.3524
▁Abd	-12.3525
▁Phế	-12.3526
aci	-12.3528
rig	-12.3529
pad	-12.3529
▁English	-12.353
omb	-12.3533
▁Andre	-12.3533
152	-12.3534
bari	-12.3535
thủ	-12.3536
▁lẻo	-12.3536
▁dẻ	-12.3539
oxi	-12.3539
▁Blan	-12.354
onii	-12.354
▁Brun	-12.3541
Powell	-12.3542
Tìm	-12.3542
▁Lindsaea	-12.3542
▁Xà	-12.3543
▁cạp	-12.3543
▁Dallas	-12.3547
▁Tước	-12.3548
▁Fl	-12.3549
take	-12.3552
▁Rum	-12.3553
iller	-12.3553
cano	-12.3555
olycentropodidae	-12.3555
đánh	-12.3556
▁Rha	-12.3557
▁Sidi	-12.3557
▁pachy	-12.3558
0,9	-12.3559
▁mút	-12.3563
liv	-12.3566
IG	-12.3567
▁nm	-12.3567
▁Mam	-12.3567
▁chả	-12.3568
▁bướu	-12.3569
▁Nile	-12.3569
▁vẩy	-12.3569
▁Klein	-12.3569
▁vắt	-12.357
▁124	-12.357
TX	-12.3571
▁clear	-12.3572
▁Togo	-12.3574
ect	-12.3578
Lion	-12.3579
rre	-12.358
▁Cad	-12.3581
▁ngây	-12.3583
▁Scandinavia	-12.3587
hill	-12.3587
▁Aya	-12.3588
▁Gothic	-12.3589
Spreng	-12.3589
▁rợ	-12.359
rion	-12.3593
▁Gary	-12.3595
▁Nico	-12.3595
▁Eugene	-12.3595
▁Gaon	-12.3597
indi	-12.3598
▁1790	-12.3599
lad	-12.36
▁2/3	-12.3602
Sam	-12.3605
390	-12.3605
gul	-12.3606
▁thon	-12.3607
left	-12.3607
Er	-12.3608
bé	-12.3608
yeong	-12.361
▁Monta	-12.3611
▁Ê	-12.3612
nur	-12.3613
giri	-12.3615
HD	-12.3617
▁Corp	-12.362
▁enzym	-12.362
▁Beta	-12.3621
kom	-12.3623
▁Sean	-12.3623
oglossum	-12.3624
raz	-12.3626
2,5	-12.3626
▁85%	-12.3626
▁Institute	-12.3627
phim	-12.3627
lib	-12.3628
265	-12.3628
hăm	-12.3629
Call	-12.3629
azine	-12.363
kit	-12.363
cius	-12.3633
▁Ves	-12.3634
Perrier	-12.3635
Bur	-12.3636
scu	-12.3636
mak	-12.3641
yx	-12.3642
VI	-12.3642
psis	-12.3643
von	-12.3643
Turner	-12.3644
▁Hyun	-12.3645
vier	-12.3645
▁Cteno	-12.3645
Come	-12.3646
nó	-12.3646
▁Desmidiaceae	-12.3648
iệu	-12.3652
▁Húc	-12.3652
kham	-12.3656
▁Aero	-12.3657
CG	-12.366
▁Hannibal	-12.3661
▁Thảm	-12.3661
▁Bề	-12.3662
▁Croat	-12.3664
▁Hôn	-12.3666
borough	-12.3666
▁1927,	-12.367
▁Dave	-12.3672
atrix	-12.3673
eae	-12.3675
▁Veneto	-12.3675
spin	-12.3676
▁Battle	-12.3681
▁Nero	-12.3683
▁Nomad	-12.3683
alli	-12.3684
gau	-12.3684
▁Clement	-12.3685
enna	-12.3686
▁Berkeley	-12.3688
▁Pandanus	-12.3688
▁chồi	-12.3688
iferum	-12.369
▁Đám	-12.369
▁Cân	-12.369
some	-12.3693
▁Kul	-12.3693
767	-12.3693
ạo	-12.3694
mica	-12.3695
▁Pir	-12.3695
wu	-12.3698
▁turbine	-12.3699
Kraenzl	-12.3701
▁Mệnh	-12.3701
▁Res	-12.3702
nio	-12.3703
▁156	-12.3703
alan	-12.3705
puncta	-12.3709
▁elip	-12.3709
▁Type	-12.371
ggio	-12.3714
bow	-12.3714
▁Thiều	-12.3715
vina	-12.3716
tex	-12.3717
stream	-12.3717
nap	-12.3719
agin	-12.3721
At	-12.3725
ön	-12.3726
▁Metacritic	-12.3728
Louis	-12.373
protein	-12.373
▁chóc	-12.3734
▁157	-12.3736
pac	-12.3737
poly	-12.374
▁Academy	-12.3741
▁Oricon	-12.3741
▁Whitney	-12.3741
▁Arnold	-12.3741
kaku	-12.3742
▁mương	-12.3744
▁Volga	-12.3744
▁Nùng	-12.3744
▁Rho	-12.3745
trường	-12.3746
endra	-12.3747
uridae	-12.3749
▁550	-12.375
▁Hautes	-12.3751
▁Heath	-12.3752
Câu	-12.3752
199	-12.3754
▁chật	-12.3755
dica	-12.3755
▁bùa	-12.3758
▁Coast	-12.3761
LM	-12.3761
▁Ore	-12.3762
ded	-12.3762
ares	-12.3762
máy	-12.3765
▁võng	-12.3765
mona	-12.3766
link	-12.3766
VC	-12.3768
▁Heli	-12.3769
▁Bọn	-12.377
▁Vỏ	-12.3772
▁mao	-12.3773
lima	-12.3774
▁Conan	-12.3776
cei	-12.3776
After	-12.3777
ularia	-12.3778
▁Diospyros	-12.3781
amin	-12.3782
}	-12.3783
cru	-12.3785
raw	-12.3787
▁ph	-12.3787
ract	-12.3789
▁lact	-12.3792
▁bích	-12.3792
tinh	-12.3794
▁thèm	-12.3795
▁Phnom	-12.3795
▁Kiện	-12.3797
▁củi	-12.3797
▁Ueda	-12.3799
OT	-12.3801
▁ĐH	-12.3801
gran	-12.3803
iculata	-12.3807
ản	-12.3807
▁Glossosoma	-12.3808
▁Thy	-12.3809
kol	-12.381
▁Pteris	-12.381
Cal	-12.381
▁Forster	-12.381
▁Beth	-12.3813
▁bur	-12.3814
▁Tày	-12.3816
3,8	-12.3823
▁Hatt	-12.3823
▁Scha	-12.3825
ondo	-12.3827
▁Rovers	-12.3828
▁Bây	-12.3829
▁Stark	-12.3833
▁1/	-12.3834
Je	-12.3834
▁sưởi	-12.3835
quân	-12.3837
▁Kr	-12.3837
BM	-12.3837
anto	-12.3839
▁Lông	-12.3843
▁Oct	-12.3843
▁Wimbledon	-12.3849
▁Ẩn	-12.3849
▁Polygalaceae	-12.3849
▁Liliaceae	-12.385
▁EA	-12.385
▁0,4	-12.3853
198	-12.3853
Ed	-12.3854
ffi	-12.3856
Mart	-12.3857
đun	-12.3859
đô	-12.386
▁Chernykh	-12.3863
▁Standard	-12.3863
eff	-12.3865
rani	-12.3865
▁Bug	-12.3868
sand	-12.3869
vari	-12.3871
▁xát	-12.3877
onica	-12.3877
▁ngất	-12.3877
bak	-12.3878
Số	-12.3879
sae	-12.3885
onyx	-12.3885
æ	-12.3885
König	-12.3886
▁thốn	-12.3887
Gate	-12.3887
nod	-12.3889
cit	-12.389
▁vector	-12.389
olepis	-12.3891
▁Rangers	-12.3891
▁Kuala	-12.3891
▁Kuro	-12.3891
▁1928,	-12.3893
570	-12.3895
Wilson	-12.3895
▁Louise	-12.3895
▁pallida	-12.3899
720	-12.3901
palli	-12.3901
rau	-12.3902
TU	-12.3903
▁Acc	-12.3904
▁Vượng	-12.3905
▁Euler	-12.3907
▁Scapa	-12.3909
myr	-12.391
matsu	-12.3911
1944	-12.3911
▁Kot	-12.3914
▁Hira	-12.3915
▁vạ	-12.3915
▁Ibrahim	-12.3917
▁Sphecidae	-12.3917
▁orientalis	-12.3917
▁two	-12.3919
notata	-12.3921
Cloud	-12.3922
gest	-12.3922
▁Kạn	-12.3923
▁1811	-12.3923
dun	-12.3926
xít	-12.3926
▁Ngang	-12.3928
class	-12.3929
▁oxi	-12.393
▁Krishna	-12.3931
▁Stock	-12.3931
cây	-12.3931
▁Tau	-12.3933
▁4:	-12.3934
hur	-12.3937
▁xách	-12.3939
▁Edge	-12.394
iscus	-12.394
▁bon	-12.3943
▁Olympia	-12.3943
▁Yun	-12.3944
▁Meg	-12.3944
▁tòng	-12.3944
Ctenus	-12.3944
system	-12.3945
agrion	-12.3945
▁Angkor	-12.3945
▁Daw	-12.3945
▁Cata	-12.3946
illus	-12.3948
▁Gas	-12.3949
▁Edwards	-12.395
▁aur	-12.395
rry	-12.3951
chất	-12.3951
istan	-12.3952
loại	-12.3956
thos	-12.3957
▁Broadway	-12.3958
Lycosa	-12.3961
▁NBC	-12.3961
161	-12.3961
Za	-12.3963
▁0,6	-12.3964
▁Gấu	-12.3964
▁Liu	-12.3966
roc	-12.3969
alt	-12.3969
▁Semiothis	-12.3972
▁Fissiden	-12.3972
illes	-12.3972
group	-12.3972
nhỏ	-12.3973
Port	-12.3975
▁bới	-12.3975
UC	-12.3976
▁Flow	-12.3977
▁Oanh	-12.3977
kana	-12.3978
Lyco	-12.3978
densis	-12.3979
ï	-12.3979
▁khoái	-12.398
▁trăn	-12.3982
3,3	-12.3983
▁Antalya	-12.3985
▁Calcio	-12.3986
▁9;	-12.3987
hil	-12.3987
lash	-12.3989
▁iso	-12.399
wie	-12.3991
▁Leuco	-12.3991
▁Chr	-12.3995
▁ngứa	-12.3999
▁Gồm	-12.4
novo	-12.4002
▁95%	-12.4003
▁Zan	-12.4004
▁209	-12.4004
coli	-12.4005
▁Án	-12.4005
bắc	-12.4006
▁Đáy	-12.401
▁136	-12.401
▁lợ	-12.4011
▁Plagiochila	-12.4012
▁Yozgat	-12.4013
rá	-12.4013
▁email	-12.4014
▁1922,	-12.4015
iên	-12.4015
▁Sunni	-12.4015
▁scho	-12.4015
▁sên	-12.4015
▁Him	-12.4016
264	-12.4018
hya	-12.4018
/2006	-12.4018
sian	-12.4019
▁líu	-12.4019
°	-12.402
nders	-12.4022
▁Gertsch	-12.4027
▁Cuatrec	-12.4027
▁650	-12.4028
chưa	-12.4031
ót	-12.4038
lès	-12.4038
▁Ath	-12.4039
▁Hối	-12.4039
▁Tia	-12.404
▁Westminster	-12.404
▁Bologna	-12.404
leon	-12.404
▁thắp	-12.4041
▁Service	-12.4041
▁Bryan	-12.4043
▁Adrian	-12.4043
1960	-12.4045
▁Crete	-12.4046
International	-12.4046
▁Lagos	-12.4047
Bảo	-12.4048
▁Bruno	-12.4048
▁Claude	-12.4052
1942	-12.4054
tak	-12.4054
▁Uhmann	-12.4054
yard	-12.4054
▁Belize	-12.4054
▁Jerry	-12.4055
HE	-12.4055
iff	-12.4056
▁Pes	-12.4057
Hàn	-12.4059
▁micr	-12.4059
▁Kate	-12.406
ulatum	-12.406
▁KBS	-12.4061
iers	-12.4061
▁cent	-12.4062
▁Want	-12.4062
▁Nadal	-12.4062
hê	-12.4062
▁Gha	-12.4064
▁Youtube	-12.4067
ớ	-12.4067
ater	-12.4068
▁diesel	-12.4068
▁bực	-12.4068
mec	-12.4068
▁Normandy	-12.4069
▁1931,	-12.4069
▁tỳ	-12.4069
1939	-12.4074
ка	-12.4075
▁119	-12.4076
▁Journal	-12.4077
Nhạc	-12.4077
▁Pacific	-12.4077
Hood	-12.4078
▁Nobu	-12.4078
enbach	-12.4078
glyco	-12.408
Pan	-12.408
Monster	-12.4081
▁Aydın	-12.4082
▁Bartramiaceae	-12.4082
kata	-12.4083
▁tẻ	-12.4083
▁Eva	-12.4084
▁ưng	-12.4086
▁Quái	-12.4086
228	-12.409
▁flav	-12.4091
ador	-12.4092
rinus	-12.4093
226	-12.4094
▁tót	-12.4096
Cyrtandra	-12.4096
▁Ada	-12.4097
▁Seiji	-12.41
laris	-12.4102
▁Nice	-12.4102
▁Make	-12.4105
ott	-12.4106
imp	-12.4108
540	-12.4109
▁Baby	-12.4109
Rhyacophila	-12.411
▁Oaxaca	-12.411
▁Sheeran	-12.411
▁glucose	-12.411
▁Jessica	-12.411
▁Maru	-12.411
▁gầy	-12.411
▁Jesus	-12.411
▁Griseb	-12.4112
▁1915,	-12.4113
▁Brooklyn	-12.4115
▁129	-12.4117
▁Alderw	-12.412
stad	-12.4121
ingham	-12.4122
▁Suk	-12.4123
▁Marino	-12.4123
Crotalaria	-12.4124
▁Kri	-12.4124
phil	-12.4124
▁Thú	-12.4126
ularis	-12.4126
flora	-12.4128
▁Giảng	-12.4128
1941	-12.4128
phr	-12.4129
▁Xantho	-12.4129
nier	-12.4129
Ag	-12.4129
▁14%	-12.4129
Ur	-12.4131
▁Raven	-12.4133
hấn	-12.4137
▁153	-12.4137
iếc	-12.4137
kim	-12.4138
ular	-12.4138
▁Bahia	-12.4139
loe	-12.4142
▁Prix	-12.4145
hiko	-12.4145
riv	-12.4145
▁kíp	-12.4149
Họ	-12.4151
▁Chử	-12.4152
▁rách	-12.4152
oud	-12.4153
ardo	-12.4156
kinh	-12.4158
Wedd	-12.4159
140	-12.416
▁Solo	-12.4162
▁Chai	-12.4162
227	-12.4164
Festuca	-12.4165
▁Peckham	-12.4165
Haw	-12.4166
▁Ames	-12.4167
▁203	-12.4169
▁Clara	-12.4171
rain	-12.4172
▁vũng	-12.4177
▁330	-12.4178
▁Norte	-12.4179
▁Cyperus	-12.4179
▁ngậm	-12.4179
▁Aaron	-12.4179
▁Sentai	-12.4181
1,9	-12.4182
Burtt	-12.4183
ực	-12.4183
Schimp	-12.4186
▁Barry	-12.4189
▁Trả	-12.419
tung	-12.4193
lton	-12.4193
▁Calabria	-12.4193
▁Edinburgh	-12.4193
▁Kütahya	-12.4193
▁Vysočina	-12.4193
520	-12.4195
▁Mardin	-12.4202
ró	-12.4203
Pre	-12.4203
▁seri	-12.4204
▁Oro	-12.4204
quá	-12.4204
Mazurskie	-12.4207
▁demo	-12.421
▁oliv	-12.421
riz	-12.4214
▁Colombo	-12.4214
▁174	-12.4217
▁Voice	-12.4219
Life	-12.4219
pine	-12.4219
▁kè	-12.422
▁purpur	-12.422
▁Ling	-12.4221
lí	-12.4221
▁Nauchnyj	-12.4221
▁Novgorod	-12.4221
▁mượt	-12.4223
▁Jorge	-12.4224
otheca	-12.4226
▁Lucy	-12.4226
hiên	-12.4228
▁đôla	-12.4228
▁Year	-12.423
ẩy	-12.423
Land	-12.4234
▁Ngo	-12.4235
phae	-12.4235
▁Andhra	-12.4235
▁đậy	-12.4236
Gau	-12.4236
cross	-12.424
▁Lor	-12.424
keri	-12.4241
Wall	-12.4242
▁Mela	-12.4242
Paul	-12.4242
BI	-12.4243
nc	-12.4244
Vienne	-12.4247
chis	-12.4247
thar	-12.4247
rro	-12.4248
255	-12.4249
nee	-12.4249
rí	-12.425
▁Saxifragaceae	-12.425
▁Tobago	-12.425
▁Zel	-12.425
▁Oslo	-12.4251
lena	-12.4254
▁Ful	-12.4255
▁Ural	-12.4256
▁Hemsl	-12.4257
point	-12.4264
▁Taliban	-12.4264
▁kiệu	-12.4264
Racosperma	-12.4264
zuki	-12.4264
virus	-12.4265
hari	-12.4266
▁Kata	-12.4268
hất	-12.4269
/2011	-12.427
pect	-12.427
197	-12.4273
Sil	-12.4274
▁thia	-12.4276
Ben	-12.4276
▁Online	-12.4279
wl	-12.428
▁nitid	-12.428
PE	-12.4283
Kunze	-12.4284
posi	-12.4284
podium	-12.4285
dice	-12.4286
▁Andrei	-12.4287
▁Clay	-12.4289
spermum	-12.429
▁USB	-12.4293
bất	-12.4293
taro	-12.4294
Happy	-12.4294
Hogna	-12.4295
▁1799	-12.4295
▁Stre	-12.4296
Nielsen	-12.4297
▁team	-12.4297
▁Erich	-12.4299
fle	-12.43
▁asper	-12.4303
kko	-12.4305
▁Enicos	-12.4306
▁Gram	-12.4307
▁Đầm	-12.4307
gues	-12.4307
▁gang	-12.4307
▁Hit	-12.4308
▁cược	-12.4308
Kiss	-12.4309
▁Note	-12.4309
▁Algeria	-12.4312
tsuki	-12.4314
▁Who	-12.4319
▁Yar	-12.4319
▁Part	-12.432
▁Cosmopterigidae	-12.432
▁QLVNCH	-12.432
▁lympho	-12.4321
▁CF	-12.4321
asse	-12.4321
▁Pis	-12.4322
▁Ryo	-12.4326
▁Springs	-12.4327
▁chợt	-12.4329
▁Từng	-12.433
194	-12.4332
▁Wallace	-12.4334
pora	-12.4334
École	-12.4335
Hiern	-12.4335
▁Rachel	-12.4336
hime	-12.4337
ứa	-12.4337
bec	-12.4338
tay	-12.4338
kle	-12.434
▁Seung	-12.434
113	-12.4342
▁Dana	-12.4343
▁tricho	-12.4345
▁Hem	-12.4346
Phil	-12.4346
xit	-12.4347
▁Mitsubishi	-12.4349
Ghost	-12.4349
Roxb	-12.4353
rew	-12.4356
▁Fat	-12.4358
ango	-12.4361
/2018	-12.4362
▁Davanagere	-12.4363
▁Trotsky	-12.4363
▁Hideyoshi	-12.4363
▁Đẳng	-12.4363
▁Gandhi	-12.4364
▁tát	-12.4365
▁máng	-12.4373
nning	-12.4373
phản	-12.4373
oj	-12.4374
Good	-12.4375
▁States	-12.4375
Fletcher	-12.4377
▁lún	-12.4378
Scho	-12.4378
201	-12.438
▁Airy	-12.438
lais	-12.4381
cot	-12.4381
cott	-12.4381
sville	-12.4382
1956	-12.4383
phyllus	-12.4383
▁Roberts	-12.4383
▁Bè	-12.4384
▁121	-12.4384
1955	-12.4384
▁vv	-12.4386
▁Asa	-12.4386
CK	-12.4389
European	-12.4391
▁Elâzığ	-12.4392
▁İzmir	-12.4392
▁nhức	-12.4392
229	-12.4393
249	-12.4397
▁Yale	-12.4397
▁Record	-12.4399
signata	-12.4399
▁Spruce	-12.4402
yal	-12.4402
▁148	-12.4402
▁nhộn	-12.4403
ل	-12.4406
▁Eisenhower	-12.4406
▁Federer	-12.4406
▁Leipzig	-12.4406
▁Abdullah	-12.4406
▁Bahamas	-12.4406
▁Miq	-12.4408
lands	-12.4408
▁Aza	-12.4411
▁Allo	-12.4411
Gilg	-12.4411
rema	-12.4412
▁phồng	-12.4412
▁Flo	-12.4413
▁Takeshi	-12.4413
rp	-12.4414
MR	-12.4415
Chrys	-12.4416
ș	-12.4417
erson	-12.4417
/2012	-12.4418
▁Dre	-12.4418
neu	-12.4418
Little	-12.442
▁Nửa	-12.442
▁Damascus	-12.442
▁Dodson	-12.4421
comune	-12.4421
▁Mirage	-12.4421
▁Dùng	-12.4424
239	-12.4426
If	-12.4426
vey	-12.4427
▁ال	-12.443
386	-12.4432
esii	-12.4432
▁Chị	-12.4433
皇后	-12.4434
▁Orchidaceae	-12.4435
186	-12.4436
iêu	-12.4436
Johnson	-12.4438
▁Chỉnh	-12.4438
▁Final	-12.444
▁Grey	-12.4441
▁Baill	-12.4444
nữ	-12.4447
mart	-12.4448
argent	-12.4449
▁Adiantaceae	-12.4449
▁Grouvelle	-12.4449
▁Portsmouth	-12.4449
got	-12.4449
▁Alexandre	-12.4449
▁Iwo	-12.4449
{	-12.4449
▁Asian	-12.4451
cini	-12.4451
▁142	-12.4451
▁Kỉ	-12.4455
▁cộ	-12.4457
Pseud	-12.4458
▁Saudi	-12.4459
cti	-12.446
rubi	-12.446
▁Adel	-12.446
▁Alberta	-12.4461
▁xoa	-12.4462
▁Box	-12.4462
▁Pterophoridae	-12.4463
▁Centaurea	-12.4463
ochrysa	-12.4463
▁Sud	-12.4464
BD	-12.4464
Game	-12.4465
▁Sarı	-12.4466
▁xào	-12.4469
▁Pip	-12.4471
▁Jet	-12.4471
luc	-12.4471
ticum	-12.4473
chet	-12.4474
▁Raichur	-12.4478
Cousinia	-12.4478
nil	-12.4478
bài	-12.4479
hoff	-12.448
/9	-12.448
ones	-12.4482
rda	-12.4482
Steud	-12.4484
196	-12.4486
▁Daily	-12.4487
▁55%	-12.4489
flex	-12.449
▁chói	-12.4491
▁rìu	-12.4492
▁bazơ	-12.4492
▁disco	-12.4493
▁134	-12.4493
obe	-12.4495
mouth	-12.4496
▁Miconi	-12.4496
oniscus	-12.4498
▁Messi	-12.4499
wara	-12.4502
▁Abel	-12.4503
eca	-12.4505
▁Orleans	-12.4507
▁Christmas	-12.4507
▁Moltke	-12.451
▁Suez	-12.451
▁tịnh	-12.4511
crypt	-12.4513
scar	-12.4514
▁nhung	-12.4515
ark	-12.4515
▁cyan	-12.452
▁Bremek	-12.4521
diana	-12.4523
▁1916,	-12.4527
eco	-12.4527
card	-12.4527
▁Lòng	-12.4527
▁Express	-12.4531
Just	-12.4532
帝	-12.4535
▁simplex	-12.4536
▁Davallia	-12.4536
nate	-12.4536
▁Tiêm	-12.4537
▁Tower	-12.4537
enstein	-12.4539
odonta	-12.454
▁Isabel	-12.4541
lineatus	-12.4543
213	-12.4544
μ	-12.4546
petala	-12.4547
Lin	-12.4547
▁gam	-12.4547
gensis	-12.4549
ative	-12.4549
▁Kita	-12.4549
Casablanca	-12.455
▁Mesochor	-12.455
▁Kashmir	-12.455
ento	-12.4551
▁bún	-12.4557
530	-12.4557
jet	-12.4557
▁Brest	-12.4559
fascia	-12.4562
▁1809	-12.4563
nari	-12.4564
▁silica	-12.4565
▁Philipin	-12.4565
allo	-12.4566
▁Penang	-12.4568
pta	-12.4568
hui	-12.4568
1949	-12.4569
▁Hô	-12.4569
IE	-12.457
kow	-12.4572
viridis	-12.4572
▁Kil	-12.4577
▁rà	-12.4578
folia	-12.4578
istra	-12.4578
▁Trữ	-12.4579
Thụy	-12.458
▁Oak	-12.458
221	-12.458
▁kền	-12.4583
burgh	-12.4584
odor	-12.4587
eres	-12.4588
ppi	-12.4593
▁Ağrı	-12.4594
▁Dmitri	-12.4594
▁Ricardo	-12.4594
▁bỉ	-12.4594
▁Lumpur	-12.4594
▁khăng	-12.4594
gale	-12.4595
Ở	-12.4596
▁Stri	-12.4596
Les	-12.4597
▁1200	-12.4598
lberg	-12.4599
▁Scotia	-12.4605
▁HQ	-12.4605
esa	-12.4607
▁obtus	-12.4607
▁García	-12.4608
▁Meteoriaceae	-12.4609
▁Hanover	-12.4609
630	-12.461
▁Hir	-12.4611
▁macr	-12.4613
ospermum	-12.4614
▁Casey	-12.4615
▁ruf	-12.4616
rado	-12.4618
▁scabr	-12.4622
zona	-12.4622
▁Aleppo	-12.4623
▁rớt	-12.4623
Mưa	-12.4623
▁Agrotis	-12.4623
▁Bourbon	-12.4623
▁tằm	-12.4623
▁Phép	-12.4625
kyi	-12.4625
clav	-12.4627
even	-12.4627
Pierre	-12.4628
▁Small	-12.4629
▁Troy	-12.463
▁Hoán	-12.4632
▁similis	-12.4632
▁Indo	-12.4635
▁131	-12.4635
Escobar	-12.4638
Scythia	-12.4638
ations	-12.4638
▁Ahmad	-12.4638
▁Ingrid	-12.4638
hito	-12.4643
Ku	-12.4649
orio	-12.4649
▁Mett	-12.4649
eller	-12.4651
▁MHz	-12.4652
▁Stuart	-12.4652
▁Kushiro	-12.4653
eric	-12.4653
▁Genova	-12.4653
pf	-12.4654
PF	-12.4656
▁Mesa	-12.4658
Mad	-12.4658
▁His	-12.4662
223	-12.4662
▁Kirk	-12.4665
▁Diplazi	-12.4667
Ł	-12.4667
170	-12.4669
▁náo	-12.4669
▁FBI	-12.4669
glia	-12.467
▁Tảo	-12.467
▁Willd	-12.4671
▁Blood	-12.4671
gma	-12.4671
▁ỏi	-12.4672
cardi	-12.4672
▁Raf	-12.4673
kō	-12.4674
UB	-12.4674
▁225	-12.4677
ochi	-12.4679
▁Château	-12.4681
▁Zaragoza	-12.4682
▁Quebec	-12.4682
▁Stanford	-12.4682
▁sin	-12.4684
▁Spin	-12.4684
▁Rib	-12.4684
▁Bavaria	-12.4684
odia	-12.4685
chai	-12.4685
aceus	-12.469
ằn	-12.4691
▁Lisa	-12.4693
DH	-12.4693
DOS	-12.4694
phương	-12.4695
ehr	-12.4695
hạt	-12.4696
NE	-12.4696
▁Euclid	-12.4697
ừ	-12.4698
▁Chal	-12.4699
Hind	-12.47
▁Holmes	-12.47
ryū	-12.4701
▁Gaza	-12.4701
most	-12.4704
▁Como	-12.4709
580	-12.4711
▁Becc	-12.4711
Rolfe	-12.4711
▁Nagasaki	-12.4711
ortho	-12.4711
pom	-12.4711
▁Felix	-12.4712
▁Guardian	-12.4713
zaki	-12.4713
▁IGN	-12.4714
▁Celt	-12.4715
▁Stapf	-12.4715
Gross	-12.4719
▁Mich	-12.4719
▁Mong	-12.472
▁virid	-12.472
lies	-12.4721
kowski	-12.4724
▁nagar	-12.4724
▁Morris	-12.4725
▁Lis	-12.4725
ities	-12.4725
Vũ	-12.4726
▁visual	-12.4726
▁Ox	-12.4726
▁4000	-12.4727
Mùa	-12.4727
▁Masters	-12.4729
▁Bì	-12.4733
ques	-12.4735
ộng	-12.4736
▁Herzog	-12.4738
▁Shar	-12.4739
astrum	-12.4741
▁liêm	-12.4742
WF	-12.4742
/2017	-12.4743
▁methyl	-12.4743
▁Sống	-12.4744
410	-12.4747
▁este	-12.4747
owa	-12.4749
▁Second	-12.4753
inho	-12.4753
1,0	-12.4753
▁Nạp	-12.4755
▁Sardinia	-12.4755
▁Cot	-12.4755
rob	-12.4756
▁fusco	-12.4757
▁Sabah	-12.4759
▁Vent	-12.476
break	-12.476
Irwin	-12.476
▁Alps	-12.4763
ebra	-12.4763
▁Tak	-12.4763
▁Triple	-12.4764
cry	-12.4764
▁Party	-12.4764
Il	-12.4766
Petit	-12.4766
▁Nol	-12.4766
spar	-12.4767
xyl	-12.4768
tou	-12.4769
vua	-12.4769
Mel	-12.4769
văn	-12.477
▁Ajax	-12.477
▁Islam	-12.4772
South	-12.4773
Din	-12.4773
▁Morrison	-12.4774
▁Arab	-12.4774
Blanco	-12.4775
▁Tấm	-12.4776
▁1600	-12.4781
254	-12.4783
▁Weekly	-12.4784
▁Minsk	-12.4785
LO	-12.4785
▁Leicester	-12.4785
▁Olivier	-12.4785
▁172	-12.4788
Minh	-12.4788
iforme	-12.479
▁Field	-12.479
Dân	-12.4791
gir	-12.4792
rba	-12.4794
757	-12.4796
loss	-12.4798
hit	-12.4798
▁Oise	-12.48
▁Bermuda	-12.48
▁Beyoncé	-12.48
▁Smolensk	-12.48
Saxon	-12.48
ethanol	-12.4804
EE	-12.4806
rano	-12.4807
▁Hiên	-12.4807
Engl	-12.4808
gaster	-12.4812
tonia	-12.4812
Kar	-12.4814
▁Çanakkale	-12.4815
ilema	-12.4815
▁Aircraft	-12.4815
▁Mây	-12.4821
phro	-12.4822
▁#1	-12.4827
opi	-12.4828
Phong	-12.4829
▁samurai	-12.483
Front	-12.483
▁Fur	-12.4831
▁Müller	-12.4832
bee	-12.4832
▁Wagner	-12.4832
▁crass	-12.4834
script	-12.4834
shō	-12.4835
ochilus	-12.4839
▁1921,	-12.484
berry	-12.484
▁Hee	-12.4841
ủng	-12.4841
4,5	-12.4841
George	-12.4842
▁răn	-12.4842
▁Frei	-12.4844
kir	-12.4844
▁Indigofera	-12.4845
▁phước	-12.4845
▁Oc	-12.4845
▁lẩn	-12.4845
▁phanh	-12.4845
▁Lily	-12.4847
▁Mâu	-12.4851
▁organ	-12.4852
▁montana	-12.4854
sat	-12.4854
▁Summer	-12.4854
▁Miya	-12.4855
▁obscura	-12.4857
▁Phì	-12.4857
▁xì	-12.4859
ières	-12.4859
Yo	-12.4859
ưng	-12.4859
▁Jihomoravský	-12.486
▁Challenge	-12.486
thần	-12.486
▁Vỹ	-12.4861
▁Quyến	-12.4861
▁Yorkshire	-12.4862
▁Oa	-12.4865
macula	-12.4866
ớn	-12.4866
Phi	-12.4866
ister	-12.4866
▁JTWC	-12.4866
▁Penta	-12.4867
Ac	-12.4868
spidium	-12.4869
oxit	-12.4869
▁area	-12.4869
501	-12.487
hydrat	-12.4872
▁Bag	-12.4872
ushi	-12.4873
▁Laurent	-12.4873
ako	-12.4873
680	-12.4873
lid	-12.4874
▁Vosges	-12.4875
▁Bloom	-12.4875
bed	-12.4875
▁Kannada	-12.4879
ellum	-12.4879
▁1900,	-12.4879
Dải	-12.4882
GT	-12.4883
Bà	-12.4884
andri	-12.4885
▁Bunge	-12.4885
Ast	-12.4885
▁Dom	-12.4889
anthum	-12.4889
Cao	-12.4889
4,7	-12.489
▁Hampshire	-12.489
tah	-12.4892
giả	-12.4894
▁Chàng	-12.4897
▁Malay	-12.4898
ан	-12.4899
Phụ	-12.49
▁Cab	-12.49
▁Cang	-12.4901
otus	-12.4903
Diamond	-12.4907
▁Goni	-12.4908
lyc	-12.4911
▁cào	-12.4913
1940	-12.4914
▁silic	-12.4915
fic	-12.4917
Tất	-12.4917
▁205	-12.4918
▁Hum	-12.4919
▁Aka	-12.492
▁major	-12.4921
▁141	-12.4923
▁múi	-12.4927
▁vét	-12.4929
▁Torres	-12.493
3,5	-12.4931
▁Dasy	-12.4931
sak	-12.4931
tổ	-12.4933
oct	-12.4934
▁1924,	-12.4934
▁Corinnidae	-12.4935
▁Diễm	-12.4935
nikov	-12.4935
▁vặt	-12.4935
beri	-12.4937
▁mụ	-12.4938
yar	-12.4939
ions	-12.494
▁2,4	-12.494
otes	-12.4941
▁1786	-12.4942
Album	-12.4943
▁Sinop	-12.4943
Thủy	-12.4944
DF	-12.4947
Los	-12.4947
NY	-12.4949
Tmarus	-12.495
▁nhẵn	-12.495
Cola	-12.4953
▁insulin	-12.4953
dler	-12.4954
▁Thuở	-12.4955
▁Basque	-12.4957
▁Chimarr	-12.4959
▁Burg	-12.496
▁Punk	-12.496
chat	-12.4963
▁Greg	-12.4964
Cleveland	-12.4965
moni	-12.4968
▁Kaneda	-12.4969
▁calo	-12.4972
▁part	-12.4976
▁Hyp	-12.4978
▁Trabzon	-12.498
▁Aug	-12.4983
▁music	-12.4984
▁Cogn	-12.4985
mora	-12.4985
GH	-12.4987
1953	-12.4988
Bel	-12.4991
▁Vitt	-12.4991
hát	-12.4993
▁Tillandsia	-12.4993
▁mủ	-12.4993
▁Bolu	-12.4994
roth	-12.4994
▁Galli	-12.4995
▁Phalacridae	-12.4996
▁Mecca	-12.4997
Shin	-12.4998
OP	-12.4999
ь	-12.5006
▁β	-12.5007
ony	-12.5007
än	-12.5009
Vernonia	-12.501
▁Family	-12.501
κ	-12.5011
González	-12.5011
Scytodes	-12.5011
▁Rudolf	-12.5011
▁vữa	-12.5011
▁Dioscoreaceae	-12.5011
▁Bai	-12.5011
▁mít	-12.5012
▁Stars	-12.5015
4,6	-12.5016
▁Hara	-12.5017
950	-12.5018
▁Ordu	-12.5022
▁Vita	-12.5026
▁Nhập	-12.5026
▁gáy	-12.5026
▁Butler	-12.5027
▁Glenea	-12.5027
▁Mimosa	-12.5028
▁erythro	-12.5029
++	-12.5029
▁mụn	-12.5032
▁Dich	-12.5033
/11	-12.5034
litz	-12.5037
307	-12.5041
stol	-12.5041
▁Hoặc	-12.5042
▁taxi	-12.5042
colo	-12.5042
▁phình	-12.5043
sole	-12.5044
caulis	-12.5044
▁Dha	-12.5045
gha	-12.5045
thiên	-12.5049
scope	-12.5049
Nutt	-12.5051
1959	-12.5052
igan	-12.5054
ül	-12.5056
Polystichum	-12.5056
1961	-12.5058
▁Galileo	-12.506
▁Luca	-12.5062
Bal	-12.5063
▁Ailen	-12.5063
▁Phá	-12.5064
iense	-12.5065
Barr	-12.5065
▁Ville	-12.5066
Today	-12.5066
dex	-12.5069
▁Diplo	-12.5069
▁305	-12.5069
▁Armstrong	-12.5071
gena	-12.5072
▁Maharashtra	-12.5072
▁Ngọn	-12.5073
▁Sing	-12.5073
ła	-12.5073
▁Bobby	-12.5074
▁Ligue	-12.5076
Viện	-12.5076
▁Lazio	-12.5078
▁ạt	-12.5079
ement	-12.5079
▁parvi	-12.5081
▁Tong	-12.5082
cauda	-12.5082
▁bẹ	-12.5083
▁Jar	-12.5083
olus	-12.5084
▁Jer	-12.5086
▁Natri	-12.5086
▁Viet	-12.5087
▁Mohammed	-12.5087
▁Southern	-12.5088
NET	-12.5088
▁plasma	-12.5088
colle	-12.5089
nella	-12.5089
▁Fidel	-12.509
▁hat	-12.5091
otto	-12.5092
jor	-12.5092
UV	-12.5095
1930	-12.5095
chim	-12.5095
atti	-12.5096
▁thắn	-12.51
Kho	-12.51
▁Cổn	-12.5102
▁Régimbart	-12.5102
▁Watanabe	-12.5102
loides	-12.5103
Gen	-12.5104
▁Aj	-12.5104
406	-12.5106
▁Rhodo	-12.5108
zano	-12.5109
▁Pele	-12.5112
111	-12.5112
enahalli	-12.5113
▁Know	-12.5113
ằm	-12.5115
cosa	-12.5115
▁Ing	-12.5115
Alb	-12.5115
236	-12.5117
▁Catalonia	-12.5118
▁Giresun	-12.5118
▁Observatory	-12.5118
▁thừng	-12.5118
▁Harvey	-12.5118
▁Maxwell	-12.5119
▁Palace	-12.5119
▁Kenshin	-12.512
rip	-12.5121
sub	-12.5122
picta	-12.5122
▁1794	-12.5124
▁ôxít	-12.5124
▁Bút	-12.5125
▁Charleston	-12.5127
▁Leonardo	-12.5128
▁hòng	-12.5129
striata	-12.5131
▁chloro	-12.5132
/100	-12.5134
▁Antonius	-12.5134
▁Pablo	-12.5134
▁1791	-12.5134
thur	-12.5135
Benn	-12.5136
777	-12.5139
ulia	-12.514
Prince	-12.5142
▁Perse	-12.5142
Nguyên	-12.5143
▁Chad	-12.5144
vara	-12.5145
iventris	-12.5146
▁mâm	-12.5146
5,6	-12.5147
▁Atta	-12.5147
1947	-12.5148
▁bus	-12.5148
▁Ptolemy	-12.5149
Ochyra	-12.5149
240	-12.515
centr	-12.5151
▁Galium	-12.5152
▁Riga	-12.5152
▁Yoon	-12.5153
▁Roberto	-12.5154
▁Bio	-12.5156
▁Lamp	-12.5156
▁liu	-12.5159
carpus	-12.5162
▁Kab	-12.5164
▁Perdita	-12.5164
▁Shimizu	-12.5164
▁Cena	-12.5169
▁Forbes	-12.517
▁Bari	-12.5171
hơn	-12.5173
pole	-12.5173
arte	-12.5173
▁Pé	-12.5176
hood	-12.5177
pennis	-12.5178
seri	-12.5178
▁45%	-12.5178
▁208	-12.5179
▁Lega	-12.518
▁Ashley	-12.5181
pir	-12.5182
aren	-12.5184
▁Dou	-12.5184
nberg	-12.5185
▁Hieron	-12.5186
ization	-12.5187
gard	-12.5189
▁pri	-12.519
Heteropoda	-12.5191
niana	-12.5192
mot	-12.5195
nac	-12.5195
phải	-12.5197
▁Viking	-12.5197
sheim	-12.5199
KS	-12.5199
224	-12.5199
sima	-12.5202
▁Bab	-12.5203
ophis	-12.5203
▁xoá	-12.5204
lii	-12.5206
roides	-12.5207
1870	-12.5209
ornis	-12.521
▁Demo	-12.521
▁Concert	-12.5211
▁khâm	-12.5211
▁Everton	-12.5212
▁Manstein	-12.5212
apicalis	-12.5213
▁March	-12.5213
▁Proc	-12.5215
brand	-12.5217
ochloa	-12.5218
▁MBC	-12.5218
▁Plus	-12.5219
gei	-12.522
gona	-12.522
bán	-12.5221
agne	-12.5223
stat	-12.5224
▁Burseraceae	-12.5226
▁Ava	-12.5227
▁bổn	-12.5229
▁Nishi	-12.5229
ering	-12.5229
▁Reed	-12.523
▁Hero	-12.5231
▁khải	-12.5232
esse	-12.5233
dịch	-12.5236
_9	-12.5236
▁Đom	-12.5241
▁Erzincan	-12.5241
▁Felipe	-12.5242
▁Nobunaga	-12.5242
▁ICAO	-12.5242
ege	-12.5242
▁Amiens	-12.5242
▁Cabrera	-12.5243
▁crassi	-12.5244
xx	-12.5245
Ang	-12.5247
▁sulfat	-12.5249
corn	-12.5251
rez	-12.5254
erz	-12.5255
▁Rodríguez	-12.5257
▁chằng	-12.5257
460	-12.5257
Nassau	-12.5259
▁Gale	-12.5259
jos	-12.5261
clad	-12.5261
▁Swa	-12.5265
▁concert	-12.5266
▁Massa	-12.5266
▁Bed	-12.5267
Kẻ	-12.5267
▁Agri	-12.5268
▁Troia	-12.5268
cycl	-12.5269
ør	-12.527
222	-12.5271
Č	-12.5273
▁occidentalis	-12.5273
▁Pall	-12.5273
▁Nearctic	-12.5273
▁Crystal	-12.5273
▁băm	-12.5273
▁sắn	-12.5276
master	-12.528
▁API	-12.528
địa	-12.5281
boro	-12.5282
▁Nakai	-12.5284
đề	-12.5284
▁Meyer	-12.5284
▁Sap	-12.5285
▁Philo	-12.5286
▁Research	-12.5289
▁nhái	-12.5289
▁chắt	-12.5289
▁mạt	-12.529
▁Ruiz	-12.5291
riana	-12.5291
▁Heter	-12.5292
▁phông	-12.5293
Jean	-12.5295
COM	-12.5296
HF	-12.5297
▁73%	-12.5297
▁spa	-12.5298
▁Falcon	-12.5298
lma	-12.5299
trị	-12.5299
▁Nod	-12.53
gnatha	-12.5301
elles	-12.5302
Vo	-12.5303
Cher	-12.5308
▁Ata	-12.5308
dù	-12.531
▁Roo	-12.531
▁Tat	-12.5311
▁Rie	-12.5315
steri	-12.5315
pris	-12.5316
olabis	-12.5316
▁nigra	-12.5317
778	-12.5318
Klotzsch	-12.532
▁López	-12.532
▁Visual	-12.532
▁Incheon	-12.532
aceum	-12.5321
Pop	-12.5321
arth	-12.5322
▁khoát	-12.5322
▁Sport	-12.5322
286	-12.5323
▁Khất	-12.5324
nja	-12.5324
▁Rocky	-12.5325
▁Webb	-12.5326
carp	-12.5327
▁Vàm	-12.5327
đá	-12.5327
▁1787	-12.5328
kki	-12.533
▁Pine	-12.5331
fest	-12.5335
▁cầy	-12.5336
may	-12.5336
▁Cul	-12.5336
▁Electric	-12.5338
Dan	-12.5339
ağı	-12.534
▁violin	-12.5345
Lomariopsidaceae	-12.5351
▁Fantasy	-12.5351
Đà	-12.5351
Special	-12.5352
▁Spencer	-12.5353
WHO	-12.5354
ssia	-12.5354
nina	-12.5355
Chỉ	-12.5355
ũng	-12.5356
enii	-12.5359
▁Ner	-12.5362
tomi	-12.5362
▁74%	-12.5363
▁Roche	-12.5363
▁xốp	-12.5367
▁miệt	-12.5368
ló	-12.5368
▁Saud	-12.5369
▁Sato	-12.5371
War	-12.5372
212	-12.5373
▁Station	-12.5374
▁nể	-12.5375
▁Samar	-12.5375
pap	-12.5377
kla	-12.5378
lc	-12.538
Schweinf	-12.5383
▁Thoát	-12.5383
▁Tỵ	-12.5387
emp	-12.5387
774	-12.5388
▁Ciidae	-12.5388
▁track	-12.5388
▁206	-12.5391
▁Hugh	-12.5391
▁Poa	-12.5392
ổng	-12.5393
clin	-12.5394
▁Lên	-12.5394
laena	-12.5395
▁vs	-12.5396
enza	-12.5398
▁Ptinidae	-12.5398
▁UAE	-12.54
▁Trứng	-12.54
▁Hagen	-12.5402
▁Mast	-12.5402
▁vế	-12.5403
▁Penh	-12.5403
▁Dê	-12.5406
ucha	-12.5406
▁Drake	-12.5408
ов	-12.5408
▁People	-12.541
trop	-12.5414
Jack	-12.5414
▁Oonopidae	-12.5414
▁Inca	-12.5415
▁Knowles	-12.5415
▁Abbas	-12.5415
▁Vượt	-12.5415
Oh	-12.5416
dul	-12.5418
▁Amur	-12.5418
mble	-12.5418
▁card	-12.5418
chloro	-12.5419
▁Bara	-12.542
▁high	-12.542
▁Tao	-12.5422
west	-12.5423
▁Mani	-12.5423
ML	-12.5425
▁Dev	-12.5425
▁Bộc	-12.5429
▁Eccellenza	-12.543
▁Nhảy	-12.543
azepam	-12.543
▁Fisher	-12.543
cole	-12.543
▁Paraná	-12.543
▁Face	-12.5431
▁Truk	-12.5431
opis	-12.5432
acetyl	-12.5432
Air	-12.5433
mode	-12.5435
▁Gibb	-12.5435
cks	-12.5436
lium	-12.544
sola	-12.5441
Đó	-12.5442
Hayata	-12.5443
▁Secret	-12.5445
▁niken	-12.5448
▁Wai	-12.5453
champ	-12.5453
▁Mia	-12.5453
TB	-12.5455
pers	-12.5457
▁over	-12.5457
tiểu	-12.5459
▁Dioscorea	-12.5461
▁Lieftinck	-12.5462
▁Shipbuilding	-12.5462
330	-12.5463
iu	-12.5464
ground	-12.5464
vesti	-12.5464
det	-12.5469
FP	-12.5469
▁Snow	-12.5469
apur	-12.5471
▁Josef	-12.5471
▁Aster	-12.5471
▁1793	-12.5473
uza	-12.5474
Harry	-12.5475
Cam	-12.5475
▁trặc	-12.5478
Origin	-12.5478
meter	-12.548
sem	-12.548
Mc	-12.5481
▁Ach	-12.5482
▁Ong	-12.5485
▁Off	-12.5485
▁Deep	-12.5486
sir	-12.5486
HI	-12.5487
plac	-12.5488
VT	-12.5489
▁Sis	-12.549
guan	-12.5493
▁Kota	-12.5493
ẫy	-12.5493
ás	-12.5493
ος	-12.5494
Aristolochiaceae	-12.5494
▁Hussein	-12.5494
▁Graph	-12.5498
▁Maj	-12.5499
0,5	-12.5499
Mal	-12.55
233	-12.5506
▁Lub	-12.5506
333	-12.5508
tab	-12.5509
cella	-12.551
ț	-12.551
Beautiful	-12.551
Vì	-12.5512
arium	-12.5513
▁Vina	-12.5513
kare	-12.5513
▁Jacq	-12.5513
▁were	-12.5514
cephalus	-12.5514
lls	-12.5514
▁Tịch	-12.5514
▁Atlantic	-12.5515
inga	-12.5516
1948	-12.5517
▁Nikola	-12.5518
chúng	-12.5519
▁Seri	-12.552
▁grandi	-12.552
haus	-12.5522
agua	-12.5523
Marie	-12.5523
Athyrium	-12.5526
▁Rhododendron	-12.5526
▁Malatya	-12.5526
▁Kosterm	-12.5526
263	-12.5526
1000	-12.5527
▁Thiêm	-12.5527
Boiss	-12.5528
▁kW	-12.5531
word	-12.5532
sine	-12.5532
tico	-12.5535
Tul	-12.5536
▁umbr	-12.5541
itas	-12.5541
375	-12.5542
jas	-12.5543
nami	-12.5543
▁Argent	-12.5545
▁nhút	-12.5546
▁151	-12.5546
bour	-12.5548
▁Anglo	-12.5548
▁Wilton	-12.5548
▁clar	-12.5548
mbu	-12.5553
220	-12.5555
▁Lucia	-12.5556
Lampyridae	-12.5558
Essex	-12.5558
1958	-12.5558
sternus	-12.5558
alb	-12.5559
BL	-12.5561
mỗi	-12.5561
▁Chae	-12.5561
Sen	-12.5563
285	-12.5564
rex	-12.5564
meli	-12.5565
323	-12.5565
Ci	-12.5565
BN	-12.5565
vig	-12.5566
vitt	-12.5567
▁pil	-12.5568
kari	-12.5569
tomo	-12.557
▁Pleuro	-12.5572
▁Gunn	-12.5573
lobus	-12.5573
▁Debehogne	-12.5574
▁Software	-12.5574
▁Warmińsk	-12.5574
▁quầy	-12.5574
▁Chiềng	-12.5574
cornis	-12.5578
rút	-12.5578
mang	-12.5579
KT	-12.5579
▁penta	-12.558
Das	-12.5581
▁Tục	-12.5583
Full	-12.5585
ãn	-12.5585
Maur	-12.5585
▁xù	-12.5585
Mai	-12.5586
▁Mira	-12.5586
volution	-12.559
astro	-12.5591
▁Hughes	-12.5591
▁Hey	-12.5594
NR	-12.5596
▁But	-12.5597
▁trổ	-12.5598
Rock	-12.5599
Regel	-12.5599
lav	-12.56
Tên	-12.56
▁poli	-12.5602
latus	-12.5603
▁will	-12.5605
Zh	-12.5605
▁Guinness	-12.5606
▁Shakespeare	-12.5606
▁hèn	-12.5606
tau	-12.5607
▁rotund	-12.5608
▁Sak	-12.5609
▁Marina	-12.561
▁Kiel	-12.5612
rhin	-12.5612
▁Côm	-12.5613
▁Was	-12.5613
▁Wald	-12.5614
lox	-12.5615
▁Saba	-12.5616
jean	-12.5616
INN	-12.5618
tricha	-12.5619
▁Bren	-12.562
▁Sac	-12.5621
ır	-12.5622
▁Davies	-12.5622
▁Mãng	-12.5623
iot	-12.5623
▁Nancy	-12.5625
▁480	-12.5628
▁LG	-12.5636
QL	-12.5638
490	-12.5639
784	-12.5639
▁mọng	-12.5639
mira	-12.564
▁Murphy	-12.564
berti	-12.5641
phos	-12.5642
kheo	-12.5643
éo	-12.5643
vant	-12.5643
UM	-12.5645
igi	-12.5645
▁Nhãn	-12.5651
dana	-12.5652
Martin	-12.5654
tang	-12.5654
▁Jihočeský	-12.5655
▁pubescens	-12.5655
▁Edmund	-12.5655
gang	-12.5656
mix	-12.5656
125	-12.5657
▁Ot	-12.5658
gari	-12.5659
cing	-12.566
dim	-12.566
▁Ishi	-12.5662
▁Hesse	-12.5665
ija	-12.5665
wak	-12.5667
like	-12.5667
count	-12.5668
spira	-12.5668
▁Hull	-12.5668
▁72%	-12.567
▁Dictynidae	-12.5671
▁Eleutherodactyl	-12.5671
▁Scirtidae	-12.5671
meria	-12.5671
▁intermedia	-12.5671
mya	-12.5671
▁titan	-12.5671
▁ngốc	-12.5672
▁Craig	-12.5673
▁Put	-12.5673
ject	-12.5674
raj	-12.5675
▁Sainte	-12.5677
Boy	-12.5677
▁Gem	-12.5679
▁nem	-12.5681
▁Kle	-12.5681
▁Móng	-12.5682
▁Adana	-12.5682
▁215	-12.5682
ught	-12.5683
edu	-12.5684
▁cyclo	-12.5686
erina	-12.5687
▁Barca	-12.5687
▁bừa	-12.5687
▁Bit	-12.5688
▁René	-12.5689
teria	-12.5689
▁Ž	-12.569
▁380	-12.5691
▁xiên	-12.5691
▁hirt	-12.5693
zai	-12.5694
▁Cope	-12.5695
kn	-12.5695
▁Kok	-12.5696
Elmer	-12.5698
ềm	-12.5699
yaku	-12.57
AZ	-12.5702
▁Lepidoziaceae	-12.5703
▁Sénégal	-12.5703
▁Trich	-12.5704
▁Plata	-12.5704
▁Morning	-12.5704
▁KV	-12.5708
tty	-12.5709
Work	-12.5709
tơ	-12.571
isha	-12.5711
▁Lig	-12.5711
4,4	-12.5712
kt	-12.5713
Gall	-12.5714
▁Adele	-12.5714
▁Creta	-12.5714
▁chà	-12.5716
lion	-12.5716
▁Rumani	-12.5717
illard	-12.5719
▁Castell	-12.5719
ük	-12.5722
Tạm	-12.5722
▁sấy	-12.5722
▁their	-12.5722
6,6	-12.5723
▁Lap	-12.5724
▁tủa	-12.5725
flava	-12.5727
Fast	-12.573
▁Nicole	-12.573
▁citr	-12.5732
▁Gagnep	-12.5734
▁Mersin	-12.5734
leb	-12.5734
dil	-12.5734
▁tenuis	-12.5735
▁Río	-12.5736
▁đò	-12.5737
▁đọ	-12.5738
▁325	-12.5739
lê	-12.5739
▁ARN	-12.5741
aden	-12.5742
▁Dolin	-12.5742
301	-12.5743
lần	-12.5746
rhiz	-12.5747
calyx	-12.5747
pei	-12.575
620	-12.575
▁Diana	-12.5751
hầu	-12.5751
▁Mika	-12.5752
▁Brisbane	-12.5752
▁Dordogne	-12.5752
Ommati	-12.5753
▁Leeds	-12.5754
phenyl	-12.5754
▁Venus	-12.5755
▁hexa	-12.5756
▁Dj	-12.5759
oxin	-12.5759
alva	-12.5761
▁Lock	-12.5761
hā	-12.5762
thea	-12.5763
▁Merc	-12.5765
▁Niệm	-12.5769
▁Doubs	-12.5769
▁Cebu	-12.5769
stand	-12.5771
fran	-12.5772
▁Shiva	-12.5772
▁rủ	-12.5776
▁Rudy	-12.5776
Nguồn	-12.5777
bili	-12.5778
andi	-12.5779
▁Bron	-12.5781
bên	-12.5781
▁Xin	-12.5781
▁trứ	-12.5782
sili	-12.5782
▁Iz	-12.5783
▁Kenneth	-12.5785
▁vâng	-12.5786
▁xăm	-12.5786
Groß	-12.5787
▁Thong	-12.5787
▁Woman	-12.5788
tari	-12.5788
232	-12.579
▁Bam	-12.579
tory	-12.5792
▁With	-12.5794
▁217	-12.5797
đất	-12.5797
úa	-12.5797
dir	-12.5797
phong	-12.58
Myrmarachne	-12.5802
▁Crawford	-12.5802
▁Hercegovina	-12.5802
Best	-12.5803
▁Isabella	-12.5803
▁Jules	-12.5806
▁Khỉ	-12.5806
oza	-12.581
skii	-12.5812
▁Asc	-12.5817
ẹo	-12.5817
▁nòi	-12.5818
Å	-12.5818
▁/>	-12.5818
▁nhám	-12.5818
math	-12.5818
▁ngạt	-12.5818
▁Get	-12.5819
▁begin	-12.5819
▁Mona	-12.5822
▁Mạt	-12.5824
Cer	-12.5826
102	-12.5826
table	-12.5828
▁nạt	-12.5831
sworth	-12.5835
▁Sophie	-12.5835
▁Phone	-12.5835
Cơ	-12.5836
▁ngừ	-12.5838
▁Republic	-12.5839
▁Nạn	-12.5839
▁Tō	-12.5839
▁76%	-12.584
▁Johan	-12.5841
Harv	-12.5841
shaw	-12.5842
▁35%	-12.5844
bea	-12.5845
▁Kö	-12.5846
round	-12.5849
▁Sey	-12.5851
▁Đĩnh	-12.5851
▁GHz	-12.5851
nota	-12.5855
▁Rhe	-12.5855
Ark	-12.5856
▁Carmen	-12.5858
▁Schott	-12.5861
▁Phán	-12.5862
bian	-12.5866
ornata	-12.5867
▁Nagoya	-12.5868
▁teaser	-12.5868
xuất	-12.5868
Thánh	-12.5869
topo	-12.5871
atta	-12.5873
/2005	-12.5878
tip	-12.5882
1962	-12.5882
pep	-12.5884
▁lipid	-12.5885
▁Assam	-12.589
303	-12.5893
▁Wien	-12.5894
▁Winston	-12.5894
masa	-12.5897
▁Serb	-12.5898
oya	-12.5898
hak	-12.59
▁Anatolia	-12.5901
▁Thỉnh	-12.5901
▁Ryukyu	-12.5901
▁magiê	-12.5901
▁Beatty	-12.5901
▁Bath	-12.5902
▁Trento	-12.5902
oux	-12.5903
▁engine	-12.5903
Wight	-12.5904
▁Dog	-12.5905
▁McG	-12.5906
▁Pseuda	-12.5906
▁Omar	-12.5906
▁sòng	-12.5906
▁Amin	-12.5907
ceros	-12.5909
orensis	-12.591
▁điếu	-12.5911
1918	-12.5913
RB	-12.5915
▁Iwa	-12.5916
adenia	-12.5917
cerus	-12.5919
▁Ultra	-12.5919
Princess	-12.5919
gali	-12.5921
▁Flam	-12.5921
▁Indre	-12.5921
▁Petrov	-12.5921
andia	-12.5924
OK	-12.5924
▁Đợ	-12.5926
▁model	-12.5926
▁Jump	-12.5927
ưởng	-12.5933
GD	-12.5934
▁Thuế	-12.5936
NV	-12.5937
▁Eagle	-12.5938
tley	-12.5939
soft	-12.594
jen	-12.5941
▁Flu	-12.5942
Tứ	-12.5943
▁auri	-12.5943
▁Haveri	-12.5944
Dự	-12.5944
295	-12.5946
Glee	-12.5947
▁Dip	-12.5947
▁Kursk	-12.5948
Berberis	-12.5949
▁Indomalaya	-12.5951
▁Lockheed	-12.5951
▁nhổ	-12.5952
▁Tommy	-12.5953
▁Đạc	-12.5954
▁Arrow	-12.5954
▁divers	-12.5957
opol	-12.5959
umba	-12.5959
Bank	-12.596
lass	-12.596
▁YG	-12.596
268	-12.596
đảo	-12.596
itor	-12.5961
▁Paz	-12.5963
▁Hus	-12.5964
▁doãn	-12.5966
▁Pam	-12.5966
▁Single	-12.5967
Universit	-12.5967
▁Siberi	-12.5967
▁Ramanagara	-12.5968
▁Dublin	-12.5968
▁Pay	-12.5971
angi	-12.5974
▁Philipp	-12.5975
▁Elena	-12.5979
iwa	-12.5984
▁japonica	-12.5984
▁VNCH	-12.5984
▁Television	-12.5984
eld	-12.5985
▁câm	-12.5986
KO	-12.5986
ttii	-12.5986
ige	-12.5994
aut	-12.5994
tăng	-12.5995
ội	-12.5997
▁Luci	-12.5997
▁Corse	-12.5997
Tự	-12.5997
▁Sergey	-12.5999
donia	-12.5999
▁Santalaceae	-12.6001
▁remix	-12.6002
sted	-12.6008
free	-12.6008
spina	-12.6011
From	-12.6011
▁Karen	-12.6013
phụ	-12.6013
▁Plant	-12.6013
kensis	-12.6015
▁Králové	-12.6018
▁Québec	-12.6018
▁Maximilian	-12.6018
▁first	-12.6018
Antoine	-12.6018
▁Amblystegiaceae	-12.6018
▁67%	-12.6018
▁sỡ	-12.6021
Mill	-12.6021
Este	-12.6024
wana	-12.6025
▁1776	-12.6026
▁Lung	-12.6026
▁Prima	-12.6028
hPa	-12.6029
▁phàm	-12.603
mind	-12.603
356	-12.6031
Miq	-12.6033
▁Alliance	-12.6035
▁Armadillidae	-12.6035
▁Malacca	-12.6035
▁Hirtz	-12.6035
▁Saw	-12.6037
path	-12.6037
otte	-12.604
vex	-12.6041
ubi	-12.6043
▁Server	-12.6043
rufa	-12.6043
▁Goku	-12.6048
ector	-12.605
Pleurothallis	-12.6052
▁Polytrichaceae	-12.6052
Anderson	-12.6053
▁Fuku	-12.6053
Electronic	-12.6054
Ray	-12.6054
ppen	-12.6054
ocalyx	-12.6055
▁Sup	-12.6056
EO	-12.6057
fall	-12.6058
▁List	-12.6059
470	-12.6059
▁Paolo	-12.6061
Corydalis	-12.6061
▁Glasgow	-12.6062
▁Muk	-12.6062
▁Henderson	-12.6069
▁Rượu	-12.6069
Poecil	-12.6069
▁Simpson	-12.6071
▁Indian	-12.6073
film	-12.6074
ńsk	-12.6074
ognathus	-12.6077
True	-12.6078
▁Fame	-12.6079
ưới	-12.6079
zard	-12.6083
ẹp	-12.6085
▁Bostrichidae	-12.6085
▁Sunderland	-12.6085
Hannover	-12.6085
inaria	-12.6086
▁Shell	-12.6086
iata	-12.6086
▁Sophia	-12.6087
▁Foster	-12.6087
başı	-12.6087
▁Rich	-12.6089
Wood	-12.6089
ặp	-12.6091
Đô	-12.6093
estro	-12.6094
itus	-12.6096
▁cune	-12.6097
▁Hanh	-12.6099
Des	-12.6101
rer	-12.6101
tone	-12.6101
▁Baba	-12.6101
gyna	-12.6102
▁Senegal	-12.6102
▁sặc	-12.6104
▁Mnet	-12.6104
ùn	-12.6106
9,5	-12.6109
vida	-12.6109
▁Chia	-12.611
▁Penn	-12.611
Myr	-12.611
BE	-12.6111
М	-12.6111
▁brunne	-12.6111
▁78%	-12.6115
glossa	-12.6115
gou	-12.6116
fol	-12.6116
ếm	-12.6119
ebel	-12.6119
Schefflera	-12.6119
Wyoming	-12.6119
▁Atlético	-12.6119
▁Salamanca	-12.6119
cip	-12.612
Oxytropis	-12.612
base	-12.612
hé	-12.612
▁GNU	-12.6121
Turcz	-12.6122
1957	-12.6122
▁Boz	-12.6123
tilla	-12.6124
▁Ace	-12.6127
▁1772	-12.6127
▁Our	-12.613
▁Gặp	-12.613
▁Lane	-12.613
1943	-12.6131
nori	-12.6131
Giáo	-12.6131
▁Helena	-12.6132
▁Kop	-12.6132
mùa	-12.6132
tiva	-12.6136
ident	-12.6136
皇	-12.6136
▁dép	-12.6136
Masdevallia	-12.6136
▁Vực	-12.6138
▁Hỷ	-12.614
▁indica	-12.6144
▁Brid	-12.6146
▁Tụ	-12.6147
▁12;	-12.6147
rep	-12.6148
inata	-12.6148
▁Finn	-12.615
▁Vor	-12.6151
Ấn	-12.6151
▁Sphaeromatidae	-12.6153
▁palm	-12.6154
abe	-12.6154
▁Phraya	-12.6155
▁Tun	-12.6157
ature	-12.6157
▁Wells	-12.6158
237	-12.6158
▁Cerato	-12.6159
▁Ellen	-12.6159
▁Tí	-12.616
▁mỉ	-12.616
lers	-12.6161
▁granit	-12.6162
395	-12.6162
achal	-12.6164
làng	-12.6165
▁Bartram	-12.6168
▁Caporiacco	-12.6171
▁liveshow	-12.6171
▁Cory	-12.6172
etsu	-12.6172
/12	-12.6175
yensis	-12.6176
▁liti	-12.6179
ặt	-12.618
▁Side	-12.618
▁Mason	-12.6182
stich	-12.6183
zing	-12.6185
schen	-12.6185
otti	-12.6187
ike	-12.6187
▁Hybosoridae	-12.6188
Baltimore	-12.6188
▁Roewer	-12.6188
▁Century	-12.6188
326	-12.6188
▁giấm	-12.6188
▁nạc	-12.6189
▁gừng	-12.6189
pilosa	-12.6189
▁Dẫn	-12.6191
hợp	-12.6192
▁androgen	-12.6193
▁nhím	-12.6195
▁who	-12.6197
east	-12.6197
four	-12.6197
▁Adi	-12.6198
▁Muốn	-12.6198
▁Thunder	-12.6199
▁sán	-12.62
▁ampl	-12.6201
terna	-12.6202
sdale	-12.6204
▁Ferguson	-12.6205
▁Maggie	-12.6205
▁thặng	-12.6205
▁Meliaceae	-12.6205
▁Nghiêu	-12.6205
▁Werner	-12.6206
▁Vẫn	-12.6207
Tư	-12.6208
▁uranium	-12.6209
Cầu	-12.6211
▁Zam	-12.6211
▁Bart	-12.6212
LD	-12.6212
eris	-12.6214
401	-12.6215
▁Sán	-12.6215
azzo	-12.6217
278	-12.6218
▁Bö	-12.622
▁Hexatom	-12.6221
▁Khuyến	-12.6222
Pyrénées	-12.6222
▁Trắc	-12.6222
Touch	-12.6223
▁Logan	-12.6224
simo	-12.6224
▁16%	-12.6229
ocephala	-12.6231
▁bênh	-12.6234
Talk	-12.6234
huyết	-12.6238
▁68%	-12.6239
▁Bijapur	-12.6239
▁Maldives	-12.6239
▁khắt	-12.6239
▁grandis	-12.6242
hép	-12.6244
▁Gỗ	-12.6244
Pseudo	-12.6245
Deutsche	-12.6245
ké	-12.6246
mô	-12.6246
Poir	-12.6247
dí	-12.6248
▁tuý	-12.6248
Fisch	-12.6248
▁Chloro	-12.6249
ın	-12.6249
hyn	-12.625
ussa	-12.625
tran	-12.6251
Mus	-12.6251
▁been	-12.6252
1931	-12.6252
pay	-12.6254
inte	-12.6254
▁Eritrea	-12.6256
mene	-12.6257
ating	-12.6259
650	-12.626
hong	-12.6263
▁Til	-12.6266
▁Kiền	-12.6267
306	-12.6269
▁Led	-12.627
▁Bird	-12.6272
▁Tonga	-12.6273
cil	-12.6273
▁Melo	-12.6273
▁Adelaide	-12.6274
▁Agelenidae	-12.6274
▁Sicily	-12.6274
▁lóng	-12.6274
Prunus	-12.6274
lines	-12.6275
đê	-12.6276
▁Joo	-12.6277
▁Yết	-12.628
▁Bổ	-12.6281
▁Bod	-12.6281
vio	-12.6281
arge	-12.6282
ants	-12.6282
Paris	-12.6283
▁chải	-12.6285
▁Nie	-12.6285
▁Nana	-12.6285
▁Ses	-12.6286
chii	-12.6286
▁Mix	-12.6286
hì	-12.6289
Trin	-12.6289
phra	-12.629
▁ngoặc	-12.6291
▁sụn	-12.6291
▁Columbus	-12.6291
▁Sevilla	-12.6291
▁Bidar	-12.6293
TCN	-12.6293
▁Seth	-12.6298
▁gibb	-12.63
anne	-12.63
Part	-12.6301
ро	-12.6301
LI	-12.6302
last	-12.6302
Fla	-12.6304
pensis	-12.6306
▁Quint	-12.6306
▁Boulenger	-12.6308
▁Lopez	-12.6308
▁nhấp	-12.6308
▁vược	-12.6309
▁Alta	-12.6309
▁Turin	-12.631
rite	-12.6311
▁Michelle	-12.6312
▁sỉ	-12.6312
▁Phillips	-12.6312
▁Leucani	-12.6314
▁Huyên	-12.6314
ếp	-12.6314
kou	-12.6314
green	-12.6316
▁66%	-12.6317
404	-12.6318
Dr	-12.632
natus	-12.632
px	-12.6323
When	-12.6324
Niederösterreich	-12.6325
▁Kharkov	-12.6326
▁Cyan	-12.6326
▁Wolfgang	-12.6326
▁Koppal	-12.6326
▁Shield	-12.6326
‘‘	-12.6326
▁Suy	-12.6326
▁Thuấn	-12.6327
plus	-12.6327
pé	-12.6328
▁Systems	-12.6333
▁Pyrros	-12.6333
Sc	-12.6339
▁console	-12.634
4,8	-12.6341
▁Momo	-12.6341
vali	-12.6342
▁Joachim	-12.6343
▁Teresa	-12.6343
▁gờ	-12.6344
Chang	-12.6346
▁Moro	-12.6348
▁Phả	-12.6349
dora	-12.6351
Hornet	-12.6352
▁171	-12.6355
đạt	-12.6357
hội	-12.6359
diễn	-12.6359
hẻo	-12.636
▁Tehran	-12.636
▁Pardubic	-12.636
HTML	-12.636
▁Liberty	-12.6361
Quan	-12.6362
▁OVA	-12.6363
florua	-12.6365
▁1700	-12.6366
god	-12.6367
▁Gou	-12.6368
▁Yeni	-12.6368
▁magn	-12.6369
▁Papa	-12.6369
▁FK	-12.6369
llen	-12.6374
▁Đản	-12.6374
kut	-12.6375
hex	-12.6375
288	-12.6376
escu	-12.6378
▁Thố	-12.6378
▁Cent	-12.6379
avia	-12.6379
▁Kush	-12.6382
107	-12.6382
▁thảy	-12.6383
▁Joy	-12.6383
bic	-12.6386
ewski	-12.6388
guchi	-12.6391
▁Đam	-12.6393
▁còi	-12.6394
▁Anyphaenidae	-12.6395
▁Jutland	-12.6395
▁Đấng	-12.6395
▁Goldblatt	-12.6395
Blue	-12.6395
▁ctv	-12.6396
▁online	-12.6396
hed	-12.6397
naya	-12.6401
▁Phillip	-12.6403
prop	-12.6405
[...]
